<unk>	0
<s>	0
</s>	0
▁#	-0
ng	-1
먹방	-2
as	-3
mr	-4
asmr	-5
ang	-6
kb	-7
ukb	-8
ukbang	-9
mukbang	-10
ea	-11
▁1	-12
▁이	-13
!!	-14
▁mukbang	-15
▁먹	-16
..	-17
▁asmr	-18
▁먹방	-19
간식	-20
🫶🏻	-21
추천	-22
ing	-23
▁수	-24
맛집	-25
▁2	-26
ting	-27
디저	-28
디저트	-29
eating	-30
or	-31
00	-32
크림	-33
▁아	-34
▁3	-35
▁맛	-36
oo	-37
▁신	-38
▁만	-39
sh	-40
▁마	-41
▁제	-42
er	-43
ood	-44
▁요	-45
이크	-46
에서	-47
초콜	-48
▁가	-49
▁치	-50
food	-51
▁사	-52
▁디저트	-53
▁간식	-54
젤리	-55
의점	-56
케이크	-57
편의점	-58
kor	-59
an	-60
▁스	-61
바이	-62
ch	-63
▁@	-64
es	-65
두바이	-66
korea	-67
▁다	-68
▁4	-69
▁n	-70
▁오	-71
초콜릿	-72
이스	-73
▁일	-74
ow	-75
▁맛있	-76
▁젼	-77
ic	-78
▁(	-79
▁한	-80
▁있	-81
▁5	-82
▁하	-83
show	-84
ᄏᄏ	-85
▁수정	-86
초코	-87
▁편의점	-88
▁두바이	-89
▁eating	-90
oc	-91
▁대	-92
▁유	-93
▁고	-94
니다	-95
▁나	-96
볶이	-97
▁소	-98
▁nan	-99
▁중	-100
▁만들	-101
▁진	-102
▁피	-103
▁그	-104
는데	-105
▁구	-106
으로	-107
떡볶이	-108
▁바	-109
▁·	-110
▁시	-111
▁수정됨	-112
이스크림	-113
▁연	-114
▁여	-115
▁f	-116
▁젼언	-117
▁과	-118
신상	-119
스타	-120
▁일본	-121
▁보	-122
▁기	-123
▁어	-124
야식	-125
▁먹어	-126
까지	-127
al	-128
▁레	-129
불닭	-130
ess	-131
▁저	-132
치킨	-133
korean	-134
▁젼언니	-135
ou	-136
▁해	-137
ert	-138
essert	-139
▁더	-140
dessert	-141
▁젤리	-142
시피	-143
▁asmreating	-144
▁신상	-145
▁미	-146
광고	-147
▁라	-148
▁6	-149
▁생	-150
▁무	-151
▁치즈	-152
▁eatingshow	-153
ts	-154
세요	-155
▁안	-156
▁파	-157
▁중국	-158
▁달	-159
▁모	-160
▁비	-161
▁부	-162
리뷰	-163
▁asmrmukbang	-164
toc	-165
en	-166
❤️	-167
딸기	-168
yp	-169
▁치킨	-170
쿠키	-171
어요	-172
쫀득	-173
치즈	-174
▁korean	-175
이로	-176
▁우	-177
후루	-178
▁드	-179
▁좋	-180
パン	-181
탕후루	-182
▁7	-183
▁전	-184
モッ	-185
▁진짜	-186
モッパン	-187
on	-188
브이로	-189
▁fyp	-190
브이로그	-191
▁조	-192
▁초코	-193
▁ch	-194
▁먹는	-195
ak	-196
거트	-197
nd	-198
te	-199
▁📍	-200
▁동	-201
▁배	-202
▁버	-203
▁빵	-204
▁최	-205
▁dessert	-206
▁-	-207
▁아이스크림	-208
▁성	-209
▁mukbangasmr	-210
?!	-211
▁야식	-212
먹방브이로그	-213
▁떡볶이	-214
하는	-215
▁과일	-216
asmrmukbang	-217
▁크	-218
▁통	-219
▁베	-220
▁분	-221
▁식	-222
▁들	-223
으면	-224
▁딸기	-225
▁케이크	-226
▁매	-227
▁정	-228
??	-229
▁인	-230
▁프	-231
둥이	-232
음식	-233
캔디	-234
!!!	-235
▁말	-236
▁지	-237
▁후	-238
sou	-239
▁두바이초콜릿	-240
▁자	-241
멜로	-242
sound	-243
▁8	-244
▁쫀득	-245
▁내	-246
▁불닭	-247
▁s	-248
▁만들어	-249
▁주	-250
볶음	-251
:00	-252
sounds	-253
▁얼	-254
▁💵	-255
la	-256
▁감	-257
메뉴	-258
습니다	-259
▁서	-260
▁신기	-261
▁레시피	-262
000	-263
▁올	-264
▁광고	-265
▁제주	-266
▁크림	-267
▁초콜릿	-268
▁꼭	-269
▁할	-270
in	-271
▁C	-272
▁들어	-273
시멜로	-274
▁신기한	-275
▁요거트	-276
다고	-277
▁선	-278
▁도	-279
스트	-280
▁설	-281
▁food	-282
▁モッパン	-283
▁공	-284
▁많	-285
이라	-286
▁세	-287
▁알	-288
▁유행	-289
▁mukbangkorea	-290
먹는	-291
영상	-292
이트	-293
...	-294
▁넣	-295
el	-296
▁10	-297
▁출	-298
너무	-299
▁마라	-300
▁🏷	-301
▁연어	-302
▁🏷️	-303
초콜렛	-304
▁당	-305
orts	-306
▁스웨	-307
▁없	-308
shorts	-309
▁koreanfood	-310
하게	-311
ick	-312
▁b	-313
AS	-314
ec	-315
▁c	-316
am	-317
▁양	-318
해서	-319
MR	-320
si	-321
▁남	-322
▁단	-323
▁카	-324
▁톡	-325
▁요리	-326
ASMR	-327
▁간식추천	-328
▁요즘	-329
▁톡톡	-330
▁마시멜로	-331
ir	-332
하고	-333
▁너무	-334
아이스크림	-335
▁꿀	-336
▁때	-337
▁완	-338
시아	-339
icken	-340
모찌	-341
어서	-342
ers	-343
,,	-344
▁같	-345
▁방	-346
▁강	-347
김치	-348
라면	-349
..?	-350
맛집추천	-351
▁+	-352
▁<	-353
▁상	-354
우유	-355
oco	-356
▁출시	-357
▁피자	-358
▁집	-359
▁여러	-360
25	-361
▁v	-362
▁참	-363
▁11	-364
!!!!	-365
▁톡톡시아	-366
--	-367
ul	-368
▁재	-369
ᄏᄏᄏᄏ	-370
sia	-371
▁toc	-372
tocsia	-373
▁toctocsia	-374
▁간	-375
▁구매	-376
건조	-377
▁베이	-378
▁M	-379
▁t	-380
그램	-381
▁떡	-382
▁물	-383
▁엽	-384
▁추	-385
▁여러분	-386
▁신상리뷰	-387
im	-388
▁발	-389
▁탕후루	-390
▁좋아	-391
찹쌀	-392
▁20	-393
▁버터	-394
▁제주도	-395
▁S	-396
새우	-397
▁만든	-398
▁계	-399
▁잘	-400
▁아니	-401
▁밥	-402
late	-403
스타그램	-404
▁디저트맛집	-405
eatingshow	-406
▁mukbangers	-407
ar	-408
▁뿌	-409
▁야식추천	-410
▁가득	-411
▁사람	-412
결건조	-413
건케이크	-414
ocolate	-415
▁살	-416
렇게	-417
요리	-418
▁9	-419
▁반	-420
▁코	-421
벤트	-422
▁메	-423
▁푸	-424
▁이거	-425
버거	-426
▁식감	-427
간식추천	-428
▁실	-429
댓글	-430
친구	-431
ur	-432
ac	-433
▁B	-434
▁초	-435
rea	-436
▁추천	-437
레시피	-438
▁동결건조	-439
라미	-440
▁서울	-441
of	-442
ok	-443
▁r	-444
▁딱	-445
▁에	-446
▁와	-447
라미수	-448
▁만들기	-449
티라미수	-450
▁ASMR	-451
ov	-452
아정	-453
▁되	-454
▁엄	-455
▁입	-456
지순	-457
▁댓글	-458
▁있는	-459
▁m	-460
▁위	-461
카페	-462
▁이번	-463
▁조합	-464
지순례	-465
~~	-466
▁거	-467
▁토	-468
▁크리	-469
찹쌀떡	-470
▁편의점신상	-471
▁먹기	-472
지만	-473
▁12	-474
▁설탕	-475
▁📍#	-476
▁국	-477
▁화	-478
▁바로	-479
▁제가	-480
▁할인	-481
▁요아정	-482
▁장	-483
팝업	-484
ake	-485
데이트	-486
▁초콜렛	-487
▁먹스타그램	-488
▁h	-489
▁육	-490
pic	-491
▁스웨디	-492
▁수건케이크	-493
▁15	-494
▁가능	-495
▁먹을	-496
picy	-497
야식추천	-498
▁두	-499
▁용	-500
▁포	-501
▁소금	-502
▁이렇게	-503
▁젼둥이	-504
▁근	-505
▁왕	-506
▁원	-507
들이	-508
▁소스	-509
보세요	-510
▁이벤트	-511
og	-512
ᅲᅲ	-513
‍🔥	-514
▁느	-515
over	-516
ed	-517
▁핫	-518
다는	-519
이어	-520
▁방법	-521
▁엽떡	-522
▁우리	-523
▁최고	-524
❤️‍🔥	-525
ee	-526
▁타	-527
▁필	-528
코스	-529
▁둥이	-530
▁제품	-531
om	-532
▁y	-533
▁돌	-534
▁처	-535
▁영상	-536
세우유	-537
▁100	-538
▁⏰	-539
▁띠	-540
디어	-541
▁30	-542
icec	-543
▁새	-544
▁함	-545
가지	-546
큰술	-547
dak	-548
크림빵	-549
uldak	-550
망고	-551
▁라면	-552
▁많이	-553
▁캔디	-554
▁G	-555
▁등	-556
▁순	-557
▁야	-558
▁직	-559
▁흑	-560
▁14	-561
▁먹고	-562
▁스웨디시	-563
▁것	-564
▁않	-565
다가	-566
을까	-567
치오	-568
ese	-569
▁우유	-570
▁드디어	-571
▁먹어보	-572
스타치오	-573
▁마시멜로우	-574
▁노	-575
▁삼	-576
과자	-577
국수	-578
인데	-579
▁바삭	-580
▁맛있게	-581
▁먹어봤	-582
ub	-583
▁난	-584
▁민	-585
들은	-586
링크	-587
모지	-588
▁근데	-589
▁대왕	-590
iral	-591
▁먹으면	-592
lover	-593
▁viral	-594
▁[	-595
▁못	-596
더니	-597
여행	-598
▁유튜	-599
합니다	-600
ream	-601
▁이모지	-602
un	-603
▁리	-604
▁지금	-605
ki	-606
▁:	-607
▁끝	-608
▁냉	-609
▁불	-610
대로	-611
ig	-612
▁예	-613
▁해외	-614
30	-615
ri	-616
▁찐	-617
▁찾	-618
피자	-619
off	-620
▁@@	-621
▁사랑	-622
볶음면	-623
▁베이킹	-624
ai	-625
▁d	-626
게장	-627
드는	-628
▁한국	-629
▁맛있는	-630
▁신메뉴	-631
▁Mukbang	-632
eo	-633
▁누	-634
▁닭	-635
벽돌	-636
해주	-637
chi	-638
▁제일	-639
▁프로	-640
▁간식먹방	-641
-2	-642
▁또	-643
▁특	-644
♥️	-645
고기	-646
구요	-647
연어	-648
▁까	-649
▁투	-650
부터	-651
스마	-652
틱톡	-653
ici	-654
▁넣고	-655
▁피스타치오	-656
▁eatingsounds	-657
——	-658
▁역	-659
다이	-660
라스	-661
만에	-662
보다	-663
▁달달	-664
▁선물	-665
icial	-666
▁연세우유	-667
▁쫀득쿠키	-668
▁받	-669
▁준	-670
▁짜	-671
▁쿠	-672
과일	-673
구이	-674
버터	-675
소스	-676
ack	-677
and	-678
▁간장	-679
▁벽돌	-680
▁마라탕	-681
official	-682
at	-683
▁맞	-684
▁종	-685
이랑	-686
urt	-687
▁고추	-688
▁음식	-689
▁저당	-690
ogurt	-691
▁신기한간식	-692
ᄃᄃ	-693
▁행	-694
징어	-695
▁망고	-696
▁부산	-697
▁신박	-698
▁재료	-699
신상리뷰	-700
▁유행하는	-701
▁건	-702
▁케	-703
▁했	-704
만원	-705
▁17	-706
▁18	-707
▁링크	-708
라스윗	-709
nack	-710
🫶🏻🫶🏻	-711
▁두바이초코	-712
/2	-713
▁K	-714
▁빠	-715
조합	-716
▁이유	-717
▁틱톡	-718
ap	-719
▁‘	-720
▁넘	-721
▁잠	-722
▁판	-723
기는	-724
나요	-725
리브	-726
링클	-727
900	-728
les	-729
▁13	-730
▁수제	-731
▁정말	-732
▁쿠키	-733
가탕후루	-734
▁편의점디저트	-735
▁경	-736
▁날	-737
▁로	-738
▁홍	-739
라고	-740
하면	-741
▁CU	-742
▁GS	-743
▁성수	-744
▁양념	-745
----	-746
▁chicken	-747
em	-748
▁걸	-749
▁손	-750
▁왜	-751
▁튀	-752
▁트	-753
라이	-754
콜라	-755
igh	-756
▁감사	-757
▁드셔	-758
▁오픈	-759
▁준비	-760
▁직접	-761
데이트코스	-762
▁yogurt	-763
==	-764
▁슈	-765
▁싶	-766
▁호	-767
겹살	-768
롯데	-769
스터	-770
▁먹었	-771
▁완전	-772
▁이제	-773
▁하나	-774
스마스	-775
요거트	-776
요리사	-777
이어트	-778
▁라라스윗	-779
le	-780
▁꾸	-781
▁밤	-782
에도	-783
페이	-784
▁김치	-785
▁말차	-786
▁푸딩	-787
▁찹쌀떡	-788
▁중국간식	-789
▁asmrfood	-790
▁잡	-791
▁증	-792
리고	-793
시는	-794
쿠토	-795
▁나왔	-796
▁맛집	-797
▁필수	-798
자친구	-799
eese	-800
▁신박한	-801
chicken	-802
it	-803
▁블	-804
▁차	-805
린지	-806
ell	-807
▁난리	-808
▁매일	-809
▁함께	-810
챌린지	-811
하쿠토	-812
빵지순례	-813
ights	-814
▁nights	-815
▁nightsnack	-816
bo	-817
▁열	-818
아서	-819
에게	-820
월드	-821
▁달콤	-822
다이프	-823
▁스웨덴	-824
▁젼둥이들	-825
oodles	-826
▁spicy	-827
icecream	-828
chocolate	-829
▁koreanmukbang	-830
▁팔	-831
가루	-832
니까	-833
빙수	-834
처럼	-835
치즈볼	-836
▁남자친구	-837
▁디저트먹방	-838
▁E	-839
▁g	-840
▁갈	-841
▁김	-842
▁명	-843
▁싸	-844
▁태	-845
도넛	-846
마트	-847
아요	-848
커피	-849
ong	-850
▁1.	-851
▁24	-852
▁25	-853
▁같이	-854
▁다음	-855
▁수박	-856
▁오리	-857
▁이게	-858
▁저는	-859
▁팝업	-860
▁소금빵	-861
먹방영상	-862
백요리사	-863
▁크리스마스	-864
▁foodlover	-865
▁韓	-866
▁잔	-867
게요	-868
는다	-869
시간	-870
심당	-871
현대	-872
eet	-873
▁韓国	-874
▁게	-875
▁햄	-876
스테	-877
:30	-878
▁22	-879
▁27	-880
▁Ch	-881
▁과자	-882
▁엄마	-883
▁오늘	-884
▁제로	-885
▁처음	-886
▁한정	-887
▁아이스	-888
▁오징어	-889
▁프로필	-890
▁/	-891
▁j	-892
▁w	-893
▁개	-894
▁맘	-895
▁뭐	-896
▁씨	-897
뚝딱	-898
레드	-899
만두	-900
먹기	-901
인지	-902
▁2.	-903
▁그냥	-904
▁꾸덕	-905
▁주문	-906
▁피부	-907
▁성심당	-908
▁맛있을까	-909
▁치킨먹방	-910
두바이초콜릿	-911
;;	-912
__	-913
▁✔	-914
▁✨	-915
▁곳	-916
▁따	-917
▁속	-918
▁찍	-919
구마	-920
복숭	-921
스킨	-922
통이	-923
▁23	-924
▁28	-925
▁35	-926
▁36	-927
▁가격	-928
▁고기	-929
▁미국	-930
▁유명	-931
복숭아	-932
▁다이어트	-933
?)	-934
ip	-935
▁?	-936
▁궁	-937
▁법	-938
▁평	-939
라빈	-940
리보	-941
베리	-942
시장	-943
▁33	-944
▁띠미	-945
▁배달	-946
▁요청	-947
▁올리브	-948
생크림빵	-949
▁카다이프	-950
디저트맛집	-951
편의점신상	-952
▁!	-953
▁F	-954
▁귀	-955
▁애	-956
▁약	-957
▁확	-958
남동	-959
더라	-960
빔면	-961
프림	-962
▁다시	-963
▁대만	-964
▁맛이	-965
▁생각	-966
▁엄청	-967
▁여기	-968
▁육회	-969
▁증정	-970
▁참여	-971
▁한번	-972
라빈스	-973
▁韓国の	-974
스킨라빈스	-975
▁신박한간식	-976
▁韓国のモッパン	-977
id	-978
▁머	-979
▁밀	-980
▁섞	-981
▁젤	-982
▁쫄	-983
마라	-984
있는	-985
초밥	-986
해요	-987
▁16	-988
▁21	-989
▁3.	-990
▁과연	-991
▁구워	-992
▁분들	-993
▁전자	-994
▁친구	-995
ubai	-996
편의점먹방	-997
▁흑백요리사	-998
koreanfood	-999
tt	-1000
▁p	-1001
▁쫀	-1002
게티	-1003
리는	-1004
샌드	-1005
양념	-1006
제품	-1007
eon	-1008
▁31	-1009
▁fr	-1010
▁강남	-1011
▁미쳤	-1012
▁부드	-1013
▁집밥	-1014
▁추가	-1015
파게티	-1016
▁유튜브	-1017
▁치즈볼	-1018
▁파스타	-1019
치킨먹방	-1020
▁빵지순례	-1021
▁chocolate	-1022
ji	-1023
tr	-1024
▁굽	-1025
▁샤	-1026
▁컵	-1027
▁플	-1028
마요	-1029
센스	-1030
▁50	-1031
▁같은	-1032
▁국물	-1033
▁뚝딱	-1034
▁모찌	-1035
▁사용	-1036
▁스타	-1037
▁양파	-1038
▁진행	-1039
신메뉴	-1040
:00-2	-1041
▁buldak	-1042
▁녹	-1043
▁된	-1044
▁앞	-1045
▁온	-1046
▁줄	-1047
▁청	-1048
다리	-1049
레븐	-1050
븐일	-1051
스틱	-1052
지는	-1053
▁32	-1054
▁계란	-1055
▁기간	-1056
▁느낌	-1057
▁라바	-1058
▁보내	-1059
▁이건	-1060
▁이상	-1061
통통이	-1062
▁들어간	-1063
븐일레븐	-1064
▁불닭볶음면	-1065
▁꼬	-1066
▁즐	-1067
▁찜	-1068
▁품	-1069
▁홈	-1070
같은	-1071
길래	-1072
나나	-1073
다면	-1074
만들	-1075
웃집	-1076
하기	-1077
(?)	-1078
▁롯데	-1079
▁맛은	-1080
▁배라	-1081
▁여수	-1082
▁잠실	-1083
▁콜라	-1084
▁난리난	-1085
▁더현대	-1086
24	-1087
▁눈	-1088
▁영	-1089
▁좀	-1090
▁패	-1091
겨울	-1092
닭발	-1093
레이	-1094
사장	-1095
에요	-1096
음료	-1097
▁19	-1098
▁29	-1099
▁vs	-1100
▁감자	-1101
▁내가	-1102
▁만두	-1103
▁매운	-1104
▁메론	-1105
▁무조	-1106
▁미친	-1107
▁성공	-1108
▁아이	-1109
▁어떤	-1110
▁좋은	-1111
▁하는	-1112
레인지	-1113
볶음밥	-1114
▁연남동	-1115
▁코하쿠토	-1116
웃집통통이	-1117
▁전자레인지	-1118
▁끓	-1119
▁막	-1120
▁브	-1121
▁빼	-1122
▁채	-1123
고추	-1124
나카	-1125
돼지	-1126
라또	-1127
으니	-1128
절대	-1129
튀김	-1130
프라	-1131
..!	-1132
boy	-1133
ice	-1134
▁40	-1135
▁Ea	-1136
▁도넛	-1137
▁파는	-1138
▁판매	-1139
었어요	-1140
weet	-1141
▁만드는	-1142
▁과일모찌	-1143
▁Eating	-1144
▁yogurtboy	-1145
/1	-1146
ag	-1147
ol	-1148
▁P	-1149
▁데	-1150
▁될	-1151
▁맵	-1152
▁문	-1153
▁익	-1154
▁키	-1155
▁퐁	-1156
거든	-1157
숯불	-1158
언니	-1159
에이	-1160
적인	-1161
지막	-1162
하니	-1163
▁26	-1164
▁당첨	-1165
▁리뷰	-1166
▁여름	-1167
▁토핑	-1168
주세요	-1169
okki	-1170
▁tte	-1171
▁오리지	-1172
더라구요	-1173
▁올리브영	-1174
▁spicyfood	-1175
aw	-1176
▁お	-1177
▁겉	-1178
▁광	-1179
▁산	-1180
▁적	-1181
すす	-1182
던킨	-1183
되는	-1184
르트	-1185
바사	-1186
스토	-1187
야끼	-1188
족발	-1189
all	-1190
emo	-1191
▁34	-1192
▁38	-1193
▁39	-1194
▁그래	-1195
▁씨유	-1196
▁확인	-1197
すすめ	-1198
거든요	-1199
먹으면	-1200
었는데	-1201
▁마지막	-1202
▁무조건	-1203
▁햄버거	-1204
!)	-1205
kr	-1206
st	-1207
▁~	-1208
▁관	-1209
▁교	-1210
▁변	-1211
▁본	-1212
▁칼	-1213
▁허	-1214
가득	-1215
나는	-1216
도리	-1217
러스	-1218
르보	-1219
쇼핑	-1220
시면	-1221
재료	-1222
존맛	-1223
ᄏᄏᄏ	-1224
▁✔️	-1225
▁고소	-1226
▁공차	-1227
▁레드	-1228
▁보고	-1229
▁최애	-1230
▁행복	-1231
만들기	-1232
amen	-1233
▁삼겹살	-1234
▁하리보	-1235
양념치킨	-1236
kbokki	-1237
▁세븐일레븐	-1238
▁왕가탕후루	-1239
asmreating	-1240
▁극	-1241
▁심	-1242
▁점	-1243
▁현	-1244
▁🔥	-1245
로우	-1246
리면	-1247
맛이	-1248
베이	-1249
뽀끼	-1250
이도	-1251
조림	-1252
주는	-1253
화과	-1254
irl	-1255
ome	-1256
▁37	-1257
▁나오	-1258
▁다른	-1259
▁하루	-1260
eang	-1261
orea	-1262
▁emo	-1263
▁kor	-1264
▁맛있음	-1265
imchi	-1266
▁❤️‍🔥	-1267
▁おすすめ	-1268
▁emoji	-1269
eangirl	-1270
okbokki	-1271
▁이웃집통통이	-1272
▁icecream	-1273
▁koreangirl	-1274
BQ	-1275
▁k	-1276
▁굿	-1277
▁탄	-1278
▁페	-1279
▁풍	-1280
듬뿍	-1281
버섯	-1282
서울	-1283
슐랭	-1284
었던	-1285
▁60	-1286
▁겨울	-1287
▁고급	-1288
▁단골	-1289
▁도전	-1290
▁없는	-1291
▁진심	-1292
이라고	-1293
ideo	-1294
▁들어가	-1295
▁유튜버	-1296
▁이사장	-1297
▁쫀득빵	-1298
▁챌린지	-1299
▁오리지널	-1300
▁치킨추천	-1301
is	-1302
ot	-1303
••	-1304
▁금	-1305
▁담	-1306
▁땡	-1307
▁뜨	-1308
▁찰	-1309
▁큰	-1310
▁팬	-1311
들도	-1312
러운	-1313
루피	-1314
만한	-1315
머니	-1316
빵집	-1317
성비	-1318
했던	-1319
!!️	-1320
ook	-1321
▁가면	-1322
▁궁금	-1323
▁되는	-1324
▁레몬	-1325
▁민트	-1326
▁안에	-1327
▁알려	-1328
▁얼음	-1329
▁종류	-1330
▁짜장	-1331
....	-1332
▁맛있어	-1333
▁피자헛	-1334
▁Korea	-1335
▁Spicy	-1336
▁떡볶이먹방	-1337
omefood	-1338
ubaichocolate	-1339
20	-1340
op	-1341
ut	-1342
▁*	-1343
▁D	-1344
▁◾	-1345
▁농	-1346
▁디	-1347
▁짱	-1348
▁츄	-1349
기도	-1350
앰플	-1351
작은	-1352
제로	-1353
커리	-1354
▁가루	-1355
▁넣어	-1356
▁리본	-1357
▁마늘	-1358
▁마음	-1359
▁메뉴	-1360
▁소리	-1361
▁여행	-1362
▁엽기	-1363
▁용산	-1364
뿌링클	-1365
새우장	-1366
코야끼	-1367
elly	-1368
————	-1369
▁먹어본	-1370
▁이마트	-1371
▁좋아하	-1372
!!!!!	-1373
▁씨유신상	-1374
▁해외에서	-1375
▁드셔보세요	-1376
▁이모지먹방	-1377
-1	-1378
il	-1379
up	-1380
▁&	-1381
▁0	-1382
▁✅	-1383
▁깨	-1384
▁덕	-1385
▁몰	-1386
▁백	-1387
▁솔	-1388
▁외	-1389
▁질	-1390
▁체	-1391
가요	-1392
까요	-1393
깍두	-1394
니언	-1395
데이	-1396
도둑	-1397
레오	-1398
리아	-1399
박스	-1400
세트	-1401
셔서	-1402
우스	-1403
킨조	-1404
혜택	-1405
ast	-1406
eat	-1407
▁4.	-1408
▁48	-1409
▁강릉	-1410
▁기념	-1411
▁시간	-1412
▁시작	-1413
▁쫄깃	-1414
생크림	-1415
스터치	-1416
프레드	-1417
▁1/2	-1418
▁BBQ	-1419
▁달달한	-1420
▁띠뽀끼	-1421
▁바나나	-1422
▁뿌링클	-1423
ew	-1424
▁글	-1425
▁릴	-1426
▁번	-1427
▁쓰	-1428
▁의	-1429
▁천	-1430
▁콩	-1431
▁테	-1432
너츠	-1433
누누	-1434
도그	-1435
러플	-1436
런치	-1437
먹어	-1438
믹스	-1439
배기	-1440
벅스	-1441
소금	-1442
애플	-1443
옛날	-1444
요일	-1445
큐브	-1446
텔라	-1447
한테	-1448
홍동	-1449
???	-1450
▁43	-1451
▁달걀	-1452
▁닭발	-1453
▁대박	-1454
▁모든	-1455
▁세트	-1456
▁식빵	-1457
▁얼마	-1458
▁인생	-1459
▁초밥	-1460
▁피클	-1461
▁홍대	-1462
깍두기	-1463
스토어	-1464
ochi	-1465
▁댓글로	-1466
▁복숭아	-1467
▁슈프림	-1468
▁유명한	-1469
▁티라미수	-1470
▁Korean	-1471
▁갔	-1472
▁결	-1473
▁늘	-1474
▁돈	-1475
▁충	-1476
▁퍼	-1477
랑스	-1478
만큼	-1479
머스	-1480
보고	-1481
샹궈	-1482
정과	-1483
카롱	-1484
토스	-1485
err	-1486
shr	-1487
▁던킨	-1488
▁돌아	-1489
▁모두	-1490
▁무료	-1491
▁반죽	-1492
▁사이	-1493
▁세상	-1494
▁스위	-1495
▁알고	-1496
▁오후	-1497
▁이런	-1498
▁정도	-1499
▁킨조	-1500
▁파삭	-1501
▁핫한	-1502
▁혜택	-1503
망루피	-1504
스테라	-1505
입니다	-1506
▁까르보	-1507
▁까먹는	-1508
▁바삭한	-1509
▁식감이	-1510
sweet	-1511
▁먹어보기	-1512
디저트먹방	-1513
ml	-1514
▁H	-1515
▁R	-1516
▁압	-1517
▁응	-1518
▁털	-1519
갬성	-1520
곱창	-1521
님이	-1522
대급	-1523
대요	-1524
던데	-1525
덮밥	-1526
동안	-1527
떻게	-1528
렌지	-1529
륄레	-1530
빼로	-1531
선물	-1532
세지	-1533
수수	-1534
순이	-1535
시고	-1536
웨이	-1537
제주	-1538
주신	-1539
찌개	-1540
촉촉	-1541
eel	-1542
imp	-1543
you	-1544
▁44	-1545
▁55	-1546
▁ᄃᄃ	-1547
▁다양	-1548
▁당장	-1549
▁만나	-1550
▁얼려	-1551
▁역시	-1552
▁옛날	-1553
▁이걸	-1554
▁일단	-1555
▁제육	-1556
▁최대	-1557
▁쿠팡	-1558
에이터	-1559
옥수수	-1560
페이퍼	-1561
====	-1562
ried	-1563
▁어떻게	-1564
▁역대급	-1565
▁인스타	-1566
▁젤라또	-1567
▁쫀득한	-1568
▁일본간식	-1569
불닭볶음면	-1570
noodles	-1571
--------	-1572
▁요거트아이스크림	-1573
ni	-1574
‍♀	-1575
▁'	-1576
▁,	-1577
▁→	-1578
▁놀	-1579
▁봄	-1580
▁써	-1581
▁왔	-1582
▁팝	-1583
▁혼	-1584
갈비	-1585
감자	-1586
갓집	-1587
게임	-1588
랜덤	-1589
리당	-1590
말차	-1591
메이	-1592
바삭	-1593
보쟈	-1594
순살	-1595
식당	-1596
에는	-1597
이야	-1598
amy	-1599
ube	-1600
▁of	-1601
▁더블	-1602
▁로제	-1603
▁많은	-1604
▁매장	-1605
▁발라	-1606
▁시원	-1607
▁아직	-1608
▁위해	-1609
▁있으	-1610
▁존맛	-1611
▁찍어	-1612
▁풍미	-1613
꿀조합	-1614
인머스	-1615
인애플	-1616
ecip	-1617
eels	-1618
erry	-1619
▁고구마	-1620
▁꿀젤리	-1621
▁단골님	-1622
▁아누누	-1623
▁프랑스	-1624
해주세요	-1625
video	-1626
▁리본캔디	-1627
▁맛있어서	-1628
▁크림치즈	-1629
▁킨조젤리	-1630
이스페이퍼	-1631
▁편의점에서	-1632
icecake	-1633
▁배스킨라빈스	-1634
ab	-1635
af	-1636
ik	-1637
zz	-1638
▁똑	-1639
▁목	-1640
▁팥	-1641
▁풀	-1642
▁황	-1643
▁휘	-1644
강정	-1645
달달	-1646
랜드	-1647
마늘	-1648
보로	-1649
시에	-1650
이면	-1651
인분	-1652
전드	-1653
퐁당	-1654
ger	-1655
‍♀️	-1656
▁gs	-1657
▁귀여	-1658
▁다들	-1659
▁발견	-1660
▁버거	-1661
▁살짝	-1662
▁상큼	-1663
▁세로	-1664
▁아주	-1665
▁어디	-1666
▁용암	-1667
▁위에	-1668
▁음료	-1669
▁이름	-1670
▁추억	-1671
▁투썸	-1672
도너츠	-1673
만드는	-1674
했는데	-1675
▁and	-1676
▁가성비	-1677
▁그리고	-1678
▁무화과	-1679
▁밥도둑	-1680
▁빼빼로	-1681
▁성수동	-1682
▁이번엔	-1683
▁집에서	-1684
▁출시한	-1685
카페추천	-1686
▁맘스터치	-1687
▁세로먹방	-1688
▁좋아하는	-1689
▁타코야끼	-1690
왕가탕후루	-1691
▁남자친구가	-1692
▁스웨덴캔디	-1693
▁asmrsounds	-1694
▁asmreatingshow	-1695
ae	-1696
bb	-1697
fr	-1698
ib	-1699
my	-1700
▁A	-1701
▁T	-1702
▁Y	-1703
▁울	-1704
▁편	-1705
▁폭	-1706
▁🍫	-1707
▁👉	-1708
▁📌	-1709
가게	-1710
구리	-1711
구정	-1712
납작	-1713
당면	-1714
라니	-1715
마자	-1716
먹을	-1717
이는	-1718
해보	-1719
협찬	-1720
ore	-1721
uit	-1722
▁꿀팁	-1723
▁나온	-1724
▁남겨	-1725
▁다진	-1726
▁달고	-1727
▁될까	-1728
▁랜덤	-1729
▁먹으	-1730
▁모르	-1731
▁발표	-1732
▁비슷	-1733
▁생일	-1734
▁숯불	-1735
▁싶은	-1736
▁있어	-1737
▁커피	-1738
▁퐁신	-1739
꽈배기	-1740
립니다	-1741
볶음탕	-1742
자마자	-1743
read	-1744
▁드셔보	-1745
▁들어있	-1746
▁만들면	-1747
▁모나카	-1748
▁생크림	-1749
▁설리당	-1750
▁오레오	-1751
링치즈볼	-1752
쫀득쿠키	-1753
ᄏᄏᄏᄏᄏ	-1754
▁간장게장	-1755
▁엽기떡볶이	-1756
▁크리에이터	-1757
▁편의점간식	-1758
▁cheese	-1759
▁달콤왕가탕후루	-1760
▁desserts	-1761
/3	-1762
ro	-1763
um	-1764
us	-1765
▁각	-1766
▁롤	-1767
▁믿	-1768
▁술	-1769
▁쭈	-1770
▁택	-1771
▁터	-1772
드릴	-1773
려서	-1774
린다	-1775
멜론	-1776
배달	-1777
싸이	-1778
우더	-1779
카포	-1780
파육	-1781
푸딩	-1782
하지	-1783
화채	-1784
500	-1785
alm	-1786
ith	-1787
kin	-1788
lav	-1789
▁45	-1790
▁52	-1791
▁80	-1792
▁가장	-1793
▁구성	-1794
▁기대	-1795
▁농심	-1796
▁대파	-1797
▁듬뿍	-1798
▁따라	-1799
▁릴스	-1800
▁매콤	-1801
▁스윗	-1802
▁스키	-1803
▁않고	-1804
▁앰플	-1805
▁잔뜩	-1806
▁찾아	-1807
▁쿠폰	-1808
▁평일	-1809
▁프리	-1810
▁행사	-1811
▁화채	-1812
▁후기	-1813
unni	-1814
▁만들었	-1815
▁먹어야	-1816
▁빵먹방	-1817
▁생기는	-1818
▁아니라	-1819
▁압구정	-1820
▁있다고	-1821
almon	-1822
▁딸기모찌	-1823
▁배달음식	-1824
▁스타벅스	-1825
buldak	-1826
shrimp	-1827
▁reels	-1828
▁떡볶이맛집	-1829
▁일본편의점	-1830
▁라이스페이퍼	-1831
▁noodles	-1832
),	-1833
ps	-1834
uk	-1835
▁ᅳ	-1836
▁든	-1837
▁몸	-1838
▁묵	-1839
▁숙	-1840
▁얹	-1841
▁업	-1842
▁취	-1843
▁회	-1844
▁힘	-1845
간단	-1846
기름	-1847
기에	-1848
라는	-1849
버린	-1850
사쥬	-1851
시럽	-1852
없이	-1853
예요	-1854
오카	-1855
와상	-1856
유튜	-1857
일본	-1858
정도	-1859
지어	-1860
투스	-1861
플레	-1862
izz	-1863
▁47	-1864
▁굽네	-1865
▁기름	-1866
▁대체	-1867
▁도쿄	-1868
▁동안	-1869
▁두찜	-1870
▁만능	-1871
▁머랭	-1872
▁먹은	-1873
▁무슨	-1874
▁새우	-1875
▁새콤	-1876
▁아는	-1877
▁없이	-1878
▁예약	-1879
▁찰떡	-1880
▁촉촉	-1881
▁하면	-1882
▁후추	-1883
리스트	-1884
마라탕	-1885
소금빵	-1886
았는데	-1887
작은술	-1888
파스타	-1889
1:00	-1890
2:00	-1891
cake	-1892
▁고추장	-1893
▁귀여운	-1894
▁꿀조합	-1895
▁레전드	-1896
▁배홍동	-1897
▁신제품	-1898
▁제대로	-1899
▁치토스	-1900
마시멜로	-1901
:30-2	-1902
▁cake	-1903
▁with	-1904
▁만들어준	-1905
▁맛있어요	-1906
▁먹어봤다	-1907
▁젤리먹방	-1908
▁치킨맛집	-1909
쇼핑리스트	-1910
▁감사합니다	-1911
▁dubaichocolate	-1912
ce	-1913
▁골	-1914
▁맥	-1915
▁면	-1916
▁별	-1917
▁빙	-1918
▁얇	-1919
❗️	-1920
같이	-1921
계란	-1922
기가	-1923
다니	-1924
등어	-1925
땅콩	-1926
라떼	-1927
로제	-1928
리가	-1929
멕시	-1930
선동	-1931
아이	-1932
얼음	-1933
이니	-1934
잖아	-1935
제공	-1936
짜리	-1937
찜닭	-1938
창고	-1939
천원	-1940
화점	-1941
awb	-1942
▁46	-1943
▁49	-1944
▁51	-1945
▁갬성	-1946
▁광안	-1947
▁기본	-1948
▁기억	-1949
▁냉동	-1950
▁무더	-1951
▁뭐가	-1952
▁민초	-1953
▁밥솥	-1954
▁버섯	-1955
▁비빔	-1956
▁새로	-1957
▁수원	-1958
▁오랜	-1959
▁육즙	-1960
▁중독	-1961
▁참고	-1962
▁태국	-1963
▁튀김	-1964
▁하트	-1965
고구마	-1966
브륄레	-1967
삼겹살	-1968
에센스	-1969
유튜버	-1970
잖아요	-1971
절대란	-1972
펄볶이	-1973
,000	-1974
,900	-1975
▁for	-1976
▁김치찜	-1977
▁달고나	-1978
▁심지어	-1979
▁이번에	-1980
▁이상한	-1981
▁처갓집	-1982
▁콜라보	-1983
▁트러플	-1984
싸이순살	-1985
짜파게티	-1986
trawb	-1987
▁마라샹궈	-1988
▁샤인머스	-1989
▁잔망루피	-1990
▁중국먹방	-1991
ooking	-1992
▁더현대서울	-1993
▁밤티라미수	-1994
▁치즈케이크	-1995
▁두바이초콜렛	-1996
Ch	-1997
ie	-1998
ju	-1999
▁X	-2000
▁’	-2001
▁걱	-2002
▁길	-2003
▁떠	-2004
▁퀄	-2005
▁큼	-2006
▁핑	-2007
▁항	-2008
▁🌟	-2009
▁🧀	-2010
⭐️	-2011
가는	-2012
구매	-2013
꼬치	-2014
냉면	-2015
드리	-2016
라멜	-2017
무리	-2018
무침	-2019
블리	-2020
술집	-2021
시기	-2022
시오	-2023
식빵	-2024
원에	-2025
이나	-2026
져스	-2027
집밥	-2028
첨가	-2029
크래	-2030
하다	-2031
하신	-2032
!🫶🏻	-2033
ion	-2034
nge	-2035
uts	-2036
ven	-2037
ᅲᅲᅲ	-2038
▁54	-2039
▁58	-2040
▁84	-2041
▁게장	-2042
▁구독	-2043
▁국내	-2044
▁그런	-2045
▁그릭	-2046
▁냉면	-2047
▁덕분	-2048
▁마곡	-2049
▁말고	-2050
▁메가	-2051
▁버블	-2052
▁사과	-2053
▁소개	-2054
▁스벅	-2055
▁시켜	-2056
▁어린	-2057
▁얼른	-2058
▁완성	-2059
▁있음	-2060
▁정보	-2061
▁추첨	-2062
는데요	-2063
비빔면	-2064
스트코	-2065
신가요	-2066
에서만	-2067
이에요	-2068
페이지	-2069
하세요	-2070
alle	-2071
jeon	-2072
▁500	-2073
▁그래서	-2074
▁깨먹는	-2075
▁다양한	-2076
▁옥수수	-2077
▁할머니	-2078
urger	-2079
▁머랭쿠키	-2080
▁초코퐁당	-2081
▁품절대란	-2082
amyang	-2083
allenge	-2084
▁foryou	-2085
▁eatingasmr	-2086
//	-2087
~!	-2088
▁=	-2089
▁O	-2090
▁ᄅ	-2091
▁갑	-2092
▁검	-2093
▁깔	-2094
▁립	-2095
▁쉽	-2096
▁앱	-2097
▁운	-2098
▁콘	-2099
▁픽	-2100
リー	-2101
가서	-2102
귀포	-2103
날엔	-2104
남친	-2105
닐라	-2106
들의	-2107
러버	-2108
려요	-2109
리얼	-2110
리카	-2111
리티	-2112
림프	-2113
벨벳	-2114
보니	-2115
수박	-2116
스크	-2117
어빵	-2118
워즈	-2119
장고	-2120
저당	-2121
준다	-2122
즐스	-2123
트로	-2124
품권	-2125
하하	-2126
학생	-2127
://	-2128
?🫶🏻	-2129
alt	-2130
out	-2131
▁42	-2132
▁53	-2133
▁85	-2134
▁가나	-2135
▁가서	-2136
▁가져	-2137
▁간단	-2138
▁걱정	-2139
▁건강	-2140
▁공구	-2141
▁꿀떡	-2142
▁나는	-2143
▁남은	-2144
▁느끼	-2145
▁늘어	-2146
▁마오	-2147
▁말아	-2148
▁무엇	-2149
▁비비	-2150
▁사장	-2151
▁사진	-2152
▁생선	-2153
▁순살	-2154
▁신선	-2155
▁얼굴	-2156
▁원조	-2157
▁이것	-2158
▁장어	-2159
▁주말	-2160
▁통귤	-2161
▁필요	-2162
▁하이	-2163
라이드	-2164
로와상	-2165
베크림	-2166
뼈닭발	-2167
이버섯	-2168
킬바사	-2169
angh	-2170
shop	-2171
tore	-2172
▁200	-2173
▁htt	-2174
▁동파육	-2175
▁딱새우	-2176
▁마카롱	-2177
▁먹어도	-2178
▁베스트	-2179
▁분들은	-2180
▁설탕무	-2181
▁오렌지	-2182
▁젤리가	-2183
🏻‍♀️	-2184
ecipe	-2185
▁들어있는	-2186
▁라면먹방	-2187
▁부드러운	-2188
▁스위즐스	-2189
▁스프레드	-2190
▁제품제공	-2191
▁코스트코	-2192
▁중국디저트	-2193
▁케이크먹방	-2194
▁스웨디시젤리	-2195
trawberry	-2196
▁ricecake	-2197
▁tteokbokki	-2198
><	-2199
CU	-2200
RN	-2201
aj	-2202
▁"	-2203
▁N	-2204
▁갓	-2205
▁독	-2206
▁빨	-2207
▁숨	-2208
▁슬	-2209
▁쏘	-2210
▁쑥	-2211
▁언	-2212
▁커	-2213
▁쿨	-2214
▁티	-2215
▁퓨	-2216
▁혹	-2217
▁히	-2218
▁🎁	-2219
간장	-2220
롱옌	-2221
린더	-2222
마리	-2223
맛있	-2224
먹고	-2225
면서	-2226
모어	-2227
비벨	-2228
시루	-2229
여서	-2230
이가	-2231
임자	-2232
지게	-2233
지도	-2234
탱글	-2235
틀즈	-2236
한다	-2237
😂😂	-2238
ikt	-2239
tte	-2240
ulu	-2241
▁->	-2242
▁41	-2243
▁계속	-2244
▁공개	-2245
▁돼지	-2246
▁등장	-2247
▁때문	-2248
▁배송	-2249
▁뿌려	-2250
▁사고	-2251
▁생긴	-2252
▁순간	-2253
▁에어	-2254
▁올해	-2255
▁절대	-2256
▁쫀쫀	-2257
▁치밥	-2258
▁큼직	-2259
▁하고	-2260
▁한입	-2261
▁해서	-2262
▁화장	-2263
다구요	-2264
동맛집	-2265
메이카	-2266
바사삭	-2267
쉬림프	-2268
양고추	-2269
적으로	-2270
파우더	-2271
플러스	-2272
:00)	-2273
apan	-2274
izza	-2275
mall	-2276
▁당첨자	-2277
▁미슐랭	-2278
▁바닐라	-2279
▁사이드	-2280
▁에센스	-2281
▁익선동	-2282
▁있어서	-2283
▁있어요	-2284
▁종류별	-2285
▁퀄리티	-2286
▁한정판	-2287
무뼈닭발	-2288
스테이크	-2289
연세우유	-2290
iktok	-2291
myeon	-2292
▁롯데월드	-2293
▁오랜만에	-2294
▁제육볶음	-2295
▁jelly	-2296
▁tangh	-2297
▁tteok	-2298
▁먹방유튜버	-2299
▁벽돌케이크	-2300
▁설탕무첨가	-2301
esefood	-2302
▁먹어봤습니다	-2303
▁homefood	-2304
▁tanghulu	-2305
▁연세우유생크림빵	-2306
+1	-2307
-0	-2308
gs	-2309
hc	-2310
ᄒᄒ	-2311
▁뒤	-2312
▁박	-2313
▁볼	-2314
▁석	-2315
▁싹	-2316
▁씹	-2317
▁워	-2318
▁클	-2319
▁향	-2320
▁휴	-2321
▁🍗	-2322
께서	-2323
냐면	-2324
눈썹	-2325
대빵	-2326
대창	-2327
덕후	-2328
되어	-2329
들만	-2330
디라	-2331
뚜껑	-2332
라인	-2333
레스	-2334
로드	-2335
리어	-2336
링글	-2337
마토	-2338
받은	-2339
사탕	-2340
세대	-2341
왁스	-2342
이네	-2343
장인	-2344
전에	-2345
케익	-2346
트남	-2347
폴리	-2348
플랜	-2349
해야	-2350
해지	-2351
?!!	-2352
DRN	-2353
asa	-2354
ish	-2355
mas	-2356
▁57	-2357
▁59	-2358
▁63	-2359
▁가지	-2360
▁곱창	-2361
▁구슬	-2362
▁기다	-2363
▁나만	-2364
▁내일	-2365
▁느껴	-2366
▁다이	-2367
▁대전	-2368
▁떡국	-2369
▁말랑	-2370
▁맛없	-2371
▁멕시	-2372
▁멜론	-2373
▁모양	-2374
▁미니	-2375
▁블루	-2376
▁사실	-2377
▁스테	-2378
▁야무	-2379
▁어울	-2380
▁와플	-2381
▁응원	-2382
▁인정	-2383
▁있고	-2384
▁자꾸	-2385
▁잡솨	-2386
▁장인	-2387
▁점보	-2388
▁정과	-2389
▁조금	-2390
▁조리	-2391
▁태그	-2392
▁혼자	-2393
됩니다	-2394
디라오	-2395
붕어빵	-2396
슈프림	-2397
이벤트	-2398
즈베리	-2399
핫도그	-2400
andy	-2401
ater	-2402
ooki	-2403
▁꾸덕한	-2404
▁나오는	-2405
▁나왔다	-2406
▁베이글	-2407
▁베트남	-2408
▁부드럽	-2409
▁소고기	-2410
▁신라면	-2411
▁요리사	-2412
▁좋아요	-2413
▁핫치즈	-2414
드릴게요	-2415
베크림콘	-2416
생크림떡	-2417
bread	-2418
▁1000	-2419
▁2025	-2420
▁간식창고	-2421
▁맛있는데	-2422
▁일본에서	-2423
▁틱톡에서	-2424
▁파인애플	-2425
수건케이크	-2426
▁까르보불닭	-2427
▁팝업스토어	-2428
▁Cheese	-2429
▁하트티라미수	-2430
▁emojimukbang	-2431
▁mukbangvideo	-2432
~?	-2433
▁네	-2434
▁몽	-2435
▁봉	-2436
▁솜	-2437
▁은	-2438
▁작	-2439
▁짭	-2440
▁컬	-2441
▁훨	-2442
▁🍓	-2443
ズド	-2444
ライ	-2445
가능	-2446
거리	-2447
그타	-2448
기계	-2449
다시	-2450
단짠	-2451
려고	-2452
르게	-2453
마다	-2454
밀크	-2455
버전	-2456
샤브	-2457
세계	-2458
워서	-2459
이다	-2460
토핑	-2461
파크	-2462
파티	-2463
한데	-2464
했다	-2465
??😱	-2466
com	-2467
dam	-2468
ins	-2469
old	-2470
▁5.	-2471
▁56	-2472
▁62	-2473
▁or	-2474
▁간편	-2475
▁경기	-2476
▁국수	-2477
▁굿즈	-2478
▁더보	-2479
▁마트	-2480
▁명란	-2481
▁분위	-2482
▁블랙	-2483
▁사온	-2484
▁시키	-2485
▁애사	-2486
▁야매	-2487
▁야채	-2488
▁오뎅	-2489
▁올려	-2490
▁완료	-2491
▁인증	-2492
▁입맛	-2493
▁자체	-2494
▁재미	-2495
▁전에	-2496
▁제발	-2497
▁젼둥	-2498
▁찹쌀	-2499
▁카페	-2500
▁특히	-2501
▁황금	-2502
▁훨씬	-2503
フリー	-2504
링글스	-2505
백화점	-2506
분만에	-2507
일까지	-2508
제주도	-2509
크런치	-2510
피오카	-2511
arsh	-2512
elon	-2513
▁고등어	-2514
▁라바샥	-2515
▁로투스	-2516
▁맛도리	-2517
▁먹고싶	-2518
▁빵순이	-2519
▁서귀포	-2520
▁속눈썹	-2521
▁스타일	-2522
▁아니고	-2523
▁앞으로	-2524
▁어니언	-2525
▁얼마나	-2526
▁있는데	-2527
▁출시했	-2528
▁크림빵	-2529
ズドライ	-2530
그타르트	-2531
베이커리	-2532
여행코스	-2533
치즈불닭	-2534
코하쿠토	-2535
:00-1	-2536
askin	-2537
onion	-2538
onuts	-2539
▁100%	-2540
▁딱새우회	-2541
▁메가커피	-2542
▁민트초코	-2543
▁베이비벨	-2544
▁선에센스	-2545
▁좋아하면	-2546
▁중국식빵	-2547
▁짜파게티	-2548
▁청양고추	-2549
▁카스테라	-2550
cheese	-2551
ᄏᄏᄏᄏᄏᄏ	-2552
▁cream	-2553
▁fruit	-2554
▁ramen	-2555
▁딸기케이크	-2556
▁젼둥이들이	-2557
▁초코케이크	-2558
▁크림브륄레	-2559
フリーズドライ	-2560
!!!!!!!!	-2561
arshmall	-2562
▁11:00-2	-2563
▁일본쇼핑리스트	-2564
▁challenge	-2565
!?	-2566
**	-2567
pl	-2568
se	-2569
▁)	-2570
▁겟	-2571
▁급	-2572
▁꽃	-2573
▁둘	-2574
▁뜯	-2575
▁몇	-2576
▁벌	-2577
▁뷰	-2578
▁쏙	-2579
▁월	-2580
▁쟁	-2581
▁챙	-2582
▁핵	-2583
▁헤	-2584
게트	-2585
꾸미	-2586
나고	-2587
날드	-2588
니아	-2589
달콤	-2590
대왕	-2591
들을	-2592
라서	-2593
런볼	-2594
르츠	-2595
미엄	-2596
보자	-2597
사고	-2598
산물	-2599
설탕	-2600
시락	-2601
았다	-2602
위치	-2603
육회	-2604
지로	-2605
참잘	-2606
최최	-2607
치기	-2608
치알	-2609
키호	-2610
함이	-2611
핫플	-2612
호박	-2613
___	-2614
amb	-2615
cha	-2616
eez	-2617
▁67	-2618
▁AI	-2619
▁강추	-2620
▁거의	-2621
▁검색	-2622
▁겉바	-2623
▁경품	-2624
▁까지	-2625
▁단짠	-2626
▁대신	-2627
▁드럼	-2628
▁또는	-2629
▁뜨거	-2630
▁마감	-2631
▁마요	-2632
▁맛도	-2633
▁메디	-2634
▁보일	-2635
▁분당	-2636
▁브라	-2637
▁사먹	-2638
▁새해	-2639
▁선택	-2640
▁스트	-2641
▁신당	-2642
▁아시	-2643
▁어른	-2644
▁얹어	-2645
▁여자	-2646
▁완벽	-2647
▁웨이	-2648
▁이젠	-2649
▁일반	-2650
▁있을	-2651
▁전국	-2652
▁종로	-2653
▁찜닭	-2654
▁최저	-2655
▁케어	-2656
▁코코	-2657
▁퓨어	-2658
도날드	-2659
드려요	-2660
모나카	-2661
볼만한	-2662
아이스	-2663
았어요	-2664
역맛집	-2665
오징어	-2666
올리브	-2667
움과자	-2668
주시면	-2669
키호테	-2670
토스트	-2671
프리카	-2672
하우스	-2673
asta	-2674
feat	-2675
shim	-2676
shin	-2677
tong	-2678
▁국물이	-2679
▁그대로	-2680
▁냉장고	-2681
▁마무리	-2682
▁마오진	-2683
▁먹어봄	-2684
▁버블티	-2685
▁버터를	-2686
▁블린더	-2687
▁상큼한	-2688
▁소세지	-2689
▁애사비	-2690
▁오이도	-2691
▁우유에	-2692
▁전남친	-2693
▁초간단	-2694
▁크림이	-2695
▁킬바사	-2696
▁토스트	-2697
▁통대창	-2698
▁통조림	-2699
▁한국에	-2700
▁화과자	-2701
믹스젤리	-2702
었습니다	-2703
왔습니다	-2704
크림치즈	-2705
해보세요	-2706
aterm	-2707
foods	-2708
▁돈키호테	-2709
▁드럼스틱	-2710
▁맛있다고	-2711
▁무더보쟈	-2712
▁여러분은	-2713
▁일본먹방	-2714
▁타피오카	-2715
▁편의점에	-2716
▁프링글스	-2717
두바이초코	-2718
마시멜로우	-2719
▁https	-2720
▁japan	-2721
▁mochi	-2722
▁간장새우장	-2723
▁그릭요거트	-2724
▁디저트추천	-2725
▁뿌링치즈볼	-2726
▁오징어게임	-2727
ᄏᄏᄏᄏᄏᄏᄏ	-2728
▁kimchi	-2729
▁마라짜파게티	-2730
▁전자레인지에	-2731
homefood	-2732
atermelon	-2733
arshmallow	-2734
10	-2735
80	-2736
FC	-2737
^^	-2738
av	-2739
yb	-2740
▁L	-2741
▁곁	-2742
▁귤	-2743
▁너	-2744
▁듯	-2745
▁복	-2746
▁쌈	-2747
▁절	-2748
▁콰	-2749
➡️	-2750
가면	-2751
김밥	-2752
꿀떡	-2753
나게	-2754
나몬	-2755
니커	-2756
닥터	-2757
라비	-2758
러드	-2759
리에	-2760
모양	-2761
봤다	-2762
뷔페	-2763
비빔	-2764
십쇼	-2765
았던	-2766
어도	-2767
이버	-2768
이지	-2769
자기	-2770
져서	-2771
주면	-2772
주문	-2773
직히	-2774
칠맛	-2775
크크	-2776
키트	-2777
태그	-2778
티드	-2779
포구	-2780
피아	-2781
활용	-2782
!!😱	-2783
seo	-2784
▁61	-2785
▁ᄅᄋ	-2786
▁관심	-2787
▁기계	-2788
▁기절	-2789
▁나와	-2790
▁누가	-2791
▁대창	-2792
▁동전	-2793
▁롤업	-2794
▁명랑	-2795
▁밀크	-2796
▁받아	-2797
▁방이	-2798
▁보다	-2799
▁보러	-2800
▁보석	-2801
▁비싸	-2802
▁비싼	-2803
▁새벽	-2804
▁샌드	-2805
▁서로	-2806
▁스티	-2807
▁시럽	-2808
▁식용	-2809
▁신전	-2810
▁약간	-2811
▁에이	-2812
▁오븐	-2813
▁왁스	-2814
▁원래	-2815
▁유리	-2816
▁이미	-2817
▁자극	-2818
▁자주	-2819
▁자취	-2820
▁족발	-2821
▁좋고	-2822
▁진한	-2823
▁짱구	-2824
▁찜기	-2825
▁채널	-2826
▁칼디	-2827
▁케익	-2828
▁타이	-2829
▁탄산	-2830
▁통해	-2831
▁팝콘	-2832
▁퍼지	-2833
▁포도	-2834
▁포장	-2835
▁핑크	-2836
▁하니	-2837
가지맛	-2838
겠어요	-2839
니커즈	-2840
산롱옌	-2841
샐러드	-2842
쌀국수	-2843
어니언	-2844
이라는	-2845
이크업	-2846
칼국수	-2847
한다는	-2848
omec	-2849
rist	-2850
▁!!️	-2851
▁갔다가	-2852
▁겉바속	-2853
▁고소한	-2854
▁광안리	-2855
▁꽈배기	-2856
▁넣으면	-2857
▁다음엔	-2858
▁데카포	-2859
▁돌리면	-2860
▁뚝딱이	-2861
▁매운맛	-2862
▁볶음밥	-2863
▁상품권	-2864
▁소보로	-2865
▁소스가	-2866
▁솔직히	-2867
▁솜사탕	-2868
▁스텔라	-2869
▁업로드	-2870
▁영상을	-2871
▁있을까	-2872
▁조합이	-2873
▁추억의	-2874
▁테스트	-2875
▁토마토	-2876
▁통연어	-2877
▁하지만	-2878
과일모찌	-2879
라비모찌	-2880
배달음식	-2881
볼만한곳	-2882
았습니다	-2883
요거트바	-2884
ajang	-2885
bbins	-2886
ookie	-2887
▁2024	-2888
▁PDRN	-2889
▁chin	-2890
▁꿀고구마	-2891
▁라즈베리	-2892
▁스키틀즈	-2893
▁여수언니	-2894
▁크로와상	-2895
▁프리미엄	-2896
▁후라이드	-2897
▁choco	-2898
▁freez	-2899
▁pizza	-2900
▁하이디라오	-2901
두바이초콜렛	-2902
배스킨라빈스	-2903
ongshim	-2904
ristmas	-2905
▁Buldak	-2906
altbread	-2907
▁Chicken	-2908
(@	-2909
15	-2910
et	-2911
fc	-2912
pp	-2913
qu	-2914
ྀི	-2915
▁.	-2916
▁“	-2917
▁•	-2918
▁タ	-2919
▁갖	-2920
▁갤	-2921
▁괜	-2922
▁껍	-2923
▁낫	-2924
▁높	-2925
▁돼	-2926
▁멀	-2927
▁봤	-2928
▁색	-2929
▁솥	-2930
▁얘	-2931
▁을	-2932
▁쭉	-2933
▁첫	-2934
▁흡	-2935
シュ	-2936
マロ	-2937
고로	-2938
기간	-2939
나무	-2940
내산	-2941
너지	-2942
님의	-2943
다방	-2944
달걀	-2945
두부	-2946
래요	-2947
럭시	-2948
룩트	-2949
르르	-2950
리기	-2951
리터	-2952
리필	-2953
말이	-2954
먹자	-2955
몬드	-2956
미식	-2957
밖에	-2958
버림	-2959
베릅	-2960
부산	-2961
분들	-2962
사람	-2963
성훈	-2964
세한	-2965
스위	-2966
시지	-2967
안에	-2968
여요	-2969
예스	-2970
인가	-2971
인회	-2972
작물	-2973
주기	-2974
주스	-2975
쫄깃	-2976
치노	-2977
치는	-2978
카오	-2979
키타	-2980
타민	-2981
호떡	-2982
훠궈	-2983
ach	-2984
afe	-2985
age	-2986
art	-2987
bap	-2988
ien	-2989
isu	-2990
oug	-2991
try	-2992
~~~	-2993
▁70	-2994
▁73	-2995
▁74	-2996
▁SN	-2997
▁cr	-2998
▁in	-2999
▁감동	-3000
▁공감	-3001
▁괜찮	-3002
▁기준	-3003
▁끓여	-3004
▁남친	-3005
▁납작	-3006
▁넣은	-3007
▁눈물	-3008
▁떡참	-3009
▁마쉬	-3010
▁마이	-3011
▁무한	-3012
▁물론	-3013
▁바르	-3014
▁바이	-3015
▁보기	-3016
▁뷔페	-3017
▁비교	-3018
▁빠삭	-3019
▁소식	-3020
▁숙성	-3021
▁얼린	-3022
▁연말	-3023
▁위치	-3024
▁이야	-3025
▁이정	-3026
▁이탈	-3027
▁쟁여	-3028
▁차갑	-3029
▁찾은	-3030
▁콩피	-3031
▁터키	-3032
▁털어	-3033
▁투표	-3034
▁특별	-3035
▁풀어	-3036
▁품절	-3037
▁한우	-3038
▁혹시	-3039
▁후회	-3040
マシュ	-3041
계치킨	-3042
낭시에	-3043
돈내산	-3044
라고요	-3045
브랜드	-3046
빵먹방	-3047
쉐이크	-3048
키타카	-3049
햄버거	-3050
황작물	-3051
..🫶🏻	-3052
ball	-3053
east	-3054
iram	-3055
kind	-3056
▁갑자기	-3057
▁같아요	-3058
▁갤럭시	-3059
▁구독자	-3060
▁그렇게	-3061
▁나폴리	-3062
▁라바삭	-3063
▁맛있다	-3064
▁먹는법	-3065
▁먹다가	-3066
▁먹어봐	-3067
▁먹으니	-3068
▁멕시코	-3069
▁미스터	-3070
▁미쳤다	-3071
▁봄날엔	-3072
▁분위기	-3073
▁비타민	-3074
▁사람이	-3075
▁섞는다	-3076
▁온라인	-3077
▁웨이팅	-3078
▁입에서	-3079
▁잡솨봐	-3080
▁쭈꾸미	-3081
▁최고급	-3082
▁추성훈	-3083
▁한가득	-3084
▁핫도그	-3085
▁해산물	-3086
▁홈런볼	-3087
술집추천	-3088
카스테라	-3089
asaac	-3090
imbap	-3091
ramen	-3092
▁rice	-3093
▁나왔다고	-3094
▁늘어나는	-3095
▁맛있어보	-3096
▁메디큐브	-3097
▁메이크업	-3098
▁빙산롱옌	-3099
▁사랑하는	-3100
▁수박화채	-3101
▁스테이크	-3102
▁스트레스	-3103
▁아프리카	-3104
▁양념치킨	-3105
▁연어먹방	-3106
▁유행음식	-3107
▁이탈리아	-3108
マシュマロ	-3109
가볼만한곳	-3110
밤티라미수	-3111
▁homec	-3112
▁고추바사삭	-3113
▁남자친구표	-3114
▁맛있었어요	-3115
▁먹어봤는데	-3116
▁샤인머스캣	-3117
▁슈프림치킨	-3118
▁연어깍두기	-3119
▁인스타그램	-3120
askinro	-3121
iramisu	-3122
samyang	-3123
▁salmon	-3124
▁레몬무뼈닭발	-3125
▁스윗믹스젤리	-3126
————————	-3127
▁freezed	-3128
▁christmas	-3129
samyangfoods	-3130
.)	-3131
11	-3132
th	-3133
▁V	-3134
▁ᄒ	-3135
▁ᅲ	-3136
▁꺼	-3137
▁논	-3138
▁놓	-3139
▁뭔	-3140
▁뭘	-3141
▁빅	-3142
▁삶	-3143
▁캇	-3144
❄️	-3145
ート	-3146
거지	-3147
고소	-3148
공항	-3149
꿔바	-3150
나리	-3151
네요	-3152
당한	-3153
들렌	-3154
디바	-3155
디야	-3156
딕만	-3157
러디	-3158
롬서	-3159
르페	-3160
리오	-3161
마음	-3162
매콤	-3163
모크	-3164
발한	-3165
배라	-3166
백질	-3167
분식	-3168
비어	-3169
산도	-3170
스키	-3171
심히	-3172
약과	-3173
였던	-3174
오뎅	-3175
유행	-3176
이고	-3177
있고	-3178
주고	-3179
쯔란	-3180
착순	-3181
참치	-3182
충전	-3183
타임	-3184
투안	-3185
티콘	-3186
팡팡	-3187
프트	-3188
피넛	-3189
하러	-3190
하며	-3191
한우	-3192
할까	-3193
!!😭	-3194
ala	-3195
eju	-3196
its	-3197
muk	-3198
oun	-3199
yup	-3200
▁(4	-3201
▁6.	-3202
▁65	-3203
▁72	-3204
▁76	-3205
▁77	-3206
▁CJ	-3207
▁by	-3208
▁걸린	-3209
▁고민	-3210
▁공유	-3211
▁과즙	-3212
▁교촌	-3213
▁구미	-3214
▁극락	-3215
▁금귤	-3216
▁기분	-3217
▁기프	-3218
▁김밥	-3219
▁꼬옥	-3220
▁나옴	-3221
▁닥터	-3222
▁따뜻	-3223
▁레인	-3224
▁레츠	-3225
▁마인	-3226
▁마켓	-3227
▁만큼	-3228
▁먹던	-3229
▁명품	-3230
▁믿고	-3231
▁바쟉	-3232
▁반값	-3233
▁밤에	-3234
▁베라	-3235
▁부탁	-3236
▁빠져	-3237
▁사와	-3238
▁살아	-3239
▁상상	-3240
▁순대	-3241
▁쏘기	-3242
▁쓰는	-3243
▁아닌	-3244
▁알맹	-3245
▁약과	-3246
▁언제	-3247
▁없을	-3248
▁연락	-3249
▁올영	-3250
▁운동	-3251
▁원픽	-3252
▁위한	-3253
▁유료	-3254
▁인천	-3255
▁있다	-3256
▁전부	-3257
▁제작	-3258
▁즐기	-3259
▁집에	-3260
▁참치	-3261
▁채소	-3262
▁최근	-3263
▁취향	-3264
▁컬러	-3265
▁케이	-3266
▁파리	-3267
▁프레	-3268
▁피드	-3269
▁훠궈	-3270
▁휴무	-3271
계란밥	-3272
님께서	-3273
등갈비	-3274
딕만스	-3275
레시장	-3276
롬서희	-3277
부초밥	-3278
브웨이	-3279
에서는	-3280
에서도	-3281
왔어요	-3282
통다리	-3283
티져스	-3284
플랜트	-3285
하리보	-3286
하면서	-3287
해지는	-3288
후라이	-3289
!!🫶🏻	-3290
3:00	-3291
acar	-3292
▁1+1	-3293
▁KFC	-3294
▁SNS	-3295
▁You	-3296
▁감칠맛	-3297
▁길거리	-3298
▁깍두기	-3299
▁네이버	-3300
▁노티드	-3301
▁단백질	-3302
▁단호박	-3303
▁댓글에	-3304
▁드세요	-3305
▁마스크	-3306
▁마포구	-3307
▁먹는다	-3308
▁메뉴는	-3309
▁모르는	-3310
▁보이면	-3311
▁붕어빵	-3312
▁시키면	-3313
▁아직도	-3314
▁어린이	-3315
▁에너지	-3316
▁열심히	-3317
▁이유가	-3318
▁중독성	-3319
▁차갑게	-3320
▁최고의	-3321
▁최대한	-3322
▁츄베릅	-3323
▁캇예스	-3324
▁크런치	-3325
▁크리스	-3326
▁패러디	-3327
▁펄볶이	-3328
▁푸투안	-3329
▁한정선	-3330
▁허대빵	-3331
▁흑돼지	-3332
▁흑임자	-3333
겠습니다	-3334
꿔바로우	-3335
납작당면	-3336
만원짜리	-3337
스프레드	-3338
크래프트	-3339
:00-0	-3340
candy	-3341
ellow	-3342
lavor	-3343
mochi	-3344
▁7000	-3345
▁chew	-3346
▁shin	-3347
▁겉바속촉	-3348
▁기프티콘	-3349
▁마쉬멜로	-3350
▁맥도날드	-3351
▁먹었더니	-3352
▁블루베리	-3353
▁생크림빵	-3354
▁스니커즈	-3355
▁스웨디쉬	-3356
▁알았는데	-3357
▁야무지게	-3358
▁연어국수	-3359
▁일본여행	-3360
▁자메이카	-3361
▁초콜릿이	-3362
피스타치오	-3363
kimchi	-3364
outube	-3365
▁던킨도너츠	-3366
▁떡볶이추천	-3367
▁와라비모찌	-3368
▁타피오카펄	-3369
▁강남맛집추천	-3370
▁마인크래프트	-3371
▁맛있어보여요	-3372
========	-3373
▁15:00-1	-3374
▁cooking	-3375
▁フリーズドライ	-3376
아이스크림케이크	-3377
▁아이스크림케이크	-3378
▁strawberry	-3379
▁chinesefood	-3380
▁freezedried	-3381
-3	-3382
17	-3383
60	-3384
GS	-3385
NG	-3386
az	-3387
dd	-3388
to	-3389
ww	-3390
̣̣	-3391
ᄀᄀ	-3392
▁J	-3393
▁⠀	-3394
▁곰	-3395
▁깜	-3396
▁낭	-3397
▁망	-3398
▁맨	-3399
▁먼	-3400
▁및	-3401
▁볶	-3402
▁붓	-3403
▁뿐	-3404
▁송	-3405
▁쌓	-3406
▁썰	-3407
▁쓴	-3408
▁옆	-3409
▁임	-3410
▁졸	-3411
▁죄	-3412
▁죽	-3413
▁착	-3414
▁캐	-3415
▁폼	-3416
▁학	-3417
▁협	-3418
▁효	-3419
▁🎉	-3420
▁💛	-3421
フル	-3422
가로	-3423
것도	-3424
골목	-3425
구나	-3426
구미	-3427
국물	-3428
꿀팁	-3429
나라	-3430
니당	-3431
달의	-3432
동구	-3433
들핏	-3434
렌타	-3435
로스	-3436
른자	-3437
리라	-3438
멸치	-3439
모밀	-3440
벚꽃	-3441
보일	-3442
셰프	-3443
수육	-3444
시켜	-3445
식단	-3446
어오	-3447
엽기	-3448
엽떡	-3449
이에	-3450
인트	-3451
있어	-3452
져트	-3453
주의	-3454
줌마	-3455
즈닝	-3456
쳐서	-3457
토리	-3458
퉁퉁	-3459
파이	-3460
해도	-3461
해진	-3462
힐링	-3463
😅😅	-3464
🤣🤣	-3465
🤤#	-3466
??😭	-3467
app	-3468
don	-3469
ear	-3470
ees	-3471
ilk	-3472
ind	-3473
ine	-3474
ink	-3475
one	-3476
ste	-3477
unu	-3478
▁75	-3479
▁❗️	-3480
▁タン	-3481
▁가게	-3482
▁가는	-3483
▁갈치	-3484
▁건조	-3485
▁구운	-3486
▁궁채	-3487
▁꺼내	-3488
▁끓인	-3489
▁나도	-3490
▁내용	-3491
▁녹는	-3492
▁놓치	-3493
▁다녀	-3494
▁달려	-3495
▁달아	-3496
▁담백	-3497
▁독일	-3498
▁되어	-3499
▁등등	-3500
▁땅콩	-3501
▁룩트	-3502
▁립밤	-3503
▁만드	-3504
▁맞추	-3505
▁못참	-3506
▁문의	-3507
▁반찬	-3508
▁받은	-3509
▁방문	-3510
▁분명	-3511
▁분식	-3512
▁빙수	-3513
▁사비	-3514
▁샤브	-3515
▁수건	-3516
▁신청	-3517
▁실비	-3518
▁아삭	-3519
▁않아	-3520
▁얇은	-3521
▁어떨	-3522
▁예쁘	-3523
▁올라	-3524
▁유머	-3525
▁이란	-3526
▁이은	-3527
▁인기	-3528
▁저도	-3529
▁전통	-3530
▁전포	-3531
▁제공	-3532
▁제철	-3533
▁좋음	-3534
▁주신	-3535
▁쫀맛	-3536
▁챙겨	-3537
▁청포	-3538
▁탱글	-3539
▁튀겨	-3540
▁플레	-3541
▁한식	-3542
▁해도	-3543
▁홍게	-3544
▁활용	-3545
거꿀떡	-3546
겁니다	-3547
년만에	-3548
맛있게	-3549
바치킨	-3550
봤는데	-3551
봤더니	-3552
비스트	-3553
아이셔	-3554
왔는데	-3555
장시장	-3556
젤라또	-3557
젼언니	-3558
주셔서	-3559
주시고	-3560
춧가루	-3561
크림떡	-3562
파크몰	-3563
푸치노	-3564
했어요	-3565
...?	-3566
..♥️	-3567
7:00	-3568
Tube	-3569
ibig	-3570
lava	-3571
ough	-3572
umpl	-3573
unch	-3574
▁300	-3575
▁ice	-3576
▁개발한	-3577
▁경기도	-3578
▁고디바	-3579
▁고라니	-3580
▁과자로	-3581
▁굽는다	-3582
▁냉모밀	-3583
▁누들핏	-3584
▁닭강정	-3585
▁당충전	-3586
▁더미식	-3587
▁때문에	-3588
▁뜨거운	-3589
▁먹었던	-3590
▁반죽을	-3591
▁보일링	-3592
▁비빔면	-3593
▁비빔밥	-3594
▁빠르게	-3595
▁사람들	-3596
▁새로운	-3597
▁선물로	-3598
▁선착순	-3599
▁세상에	-3600
▁소스를	-3601
▁시즈닝	-3602
▁식용유	-3603
▁이디야	-3604
▁인생을	-3605
▁있다면	-3606
▁있으니	-3607
▁자세한	-3608
▁재료를	-3609
▁정도로	-3610
▁짜장면	-3611
▁초코바	-3612
▁카라멜	-3613
▁팔로우	-3614
▁한국인	-3615
▁했는데	-3616
▁화이트	-3617
다이어트	-3618
라면먹방	-3619
렌타인데	-3620
롯데월드	-3621
새우만두	-3622
였습니다	-3623
팽이버섯	-3624
했습니다	-3625
anunu	-3626
▁감자튀김	-3627
▁구움과자	-3628
▁다진마늘	-3629
▁단골님들	-3630
▁드셔보신	-3631
▁들어가는	-3632
▁레드벨벳	-3633
▁바삭바삭	-3634
▁불닭소스	-3635
▁생선구이	-3636
▁엽떡먹방	-3637
▁옛날간식	-3638
▁유료광고	-3639
▁제로시피	-3640
▁치즈스틱	-3641
▁컵케이크	-3642
▁피키타카	-3643
▁홈페이지	-3644
▁홈플러스	-3645
acaron	-3646
ountry	-3647
▁가능합니다	-3648
▁간장계란밥	-3649
▁동파육만두	-3650
▁마쉬멜로우	-3651
▁만나보세요	-3652
▁불닭레시피	-3653
▁소금빵맛집	-3654
▁에그타르트	-3655
▁있으신가요	-3656
▁파베크림콘	-3657
umpling	-3658
▁보내드릴게요	-3659
▁10:00-2	-3660
▁11:30-2	-3661
▁YouTube	-3662
▁chewing	-3663
sweetshop	-3664
▁baskinro	-3665
ajangmyeon	-3666
----------------	-3667
.(	-3668
13	-3669
?🤭	-3670
ET	-3671
HC	-3672
TI	-3673
gb	-3674
ix	-3675
▁I	-3676
▁U	-3677
▁깊	-3678
▁꿈	-3679
▁냄	-3680
▁땐	-3681
▁럭	-3682
▁룸	-3683
▁싫	-3684
▁접	-3685
▁찬	-3686
▁총	-3687
⬇️	-3688
가슴	-3689
가쟈	-3690
강릉	-3691
개씩	-3692
거나	-3693
근데	-3694
기념	-3695
네즈	-3696
놀라	-3697
뉴얼	-3698
는법	-3699
는지	-3700
니깐	-3701
님들	-3702
님표	-3703
단계	-3704
당첨	-3705
듯이	-3706
락실	-3707
랭크	-3708
량진	-3709
럭스	-3710
레미	-3711
렸을	-3712
록스	-3713
르방	-3714
르키	-3715
리즘	-3716
맛도	-3717
명양	-3718
모션	-3719
바닥	-3720
방법	-3721
버렸	-3722
번째	-3723
범벅	-3724
불판	-3725
사이	-3726
성수	-3727
소바	-3728
시절	-3729
없는	-3730
었다	-3731
에만	-3732
연히	-3733
우니	-3734
은지	-3735
이자	-3736
일까	-3737
장국	-3738
장을	-3739
제육	-3740
좋아	-3741
주얼	-3742
중에	-3743
지개	-3744
케어	-3745
코팅	-3746
크리	-3747
판매	-3748
푸드	-3749
필링	-3750
하나	-3751
한정	-3752
🇯🇵	-3753
..(	-3754
..🥹	-3755
100	-3756
ash	-3757
bhc	-3758
een	-3759
gam	-3760
han	-3761
mrb	-3762
ram	-3763
wed	-3764
▁68	-3765
▁79	-3766
▁83	-3767
▁FC	-3768
▁Sh	-3769
▁가야	-3770
▁게임	-3771
▁고생	-3772
▁공식	-3773
▁관리	-3774
▁그날	-3775
▁기회	-3776
▁기획	-3777
▁김장	-3778
▁꼬치	-3779
▁나라	-3780
▁나쵸	-3781
▁내내	-3782
▁노력	-3783
▁다르	-3784
▁달라	-3785
▁대란	-3786
▁대용	-3787
▁덮밥	-3788
▁데려	-3789
▁된장	-3790
▁때려	-3791
▁똑같	-3792
▁뚜껑	-3793
▁뜯어	-3794
▁러버	-3795
▁말먹	-3796
▁맛을	-3797
▁맞춰	-3798
▁매력	-3799
▁먼저	-3800
▁멀티	-3801
▁모공	-3802
▁목살	-3803
▁물을	-3804
▁미침	-3805
▁바쓰	-3806
▁배민	-3807
▁별로	-3808
▁부대	-3809
▁부모	-3810
▁빵피	-3811
▁사탕	-3812
▁상태	-3813
▁생겼	-3814
▁석류	-3815
▁섞은	-3816
▁성남	-3817
▁순삭	-3818
▁스팸	-3819
▁시골	-3820
▁시절	-3821
▁시카	-3822
▁시흥	-3823
▁실치	-3824
▁실패	-3825
▁실화	-3826
▁싸악	-3827
▁어때	-3828
▁어제	-3829
▁연세	-3830
▁예정	-3831
▁완판	-3832
▁왕창	-3833
▁외국	-3834
▁우선	-3835
▁울산	-3836
▁유럽	-3837
▁장난	-3838
▁저렴	-3839
▁저장	-3840
▁조개	-3841
▁조절	-3842
▁조화	-3843
▁주변	-3844
▁줄서	-3845
▁즐겨	-3846
▁지난	-3847
▁진정	-3848
▁쫄면	-3849
▁쯔란	-3850
▁체리	-3851
▁최초	-3852
▁충격	-3853
▁충전	-3854
▁카이	-3855
▁파니	-3856
▁패드	-3857
▁팬에	-3858
▁포토	-3859
▁푸드	-3860
▁푸짐	-3861
▁피치	-3862
▁픽스	-3863
▁함박	-3864
▁항상	-3865
▁해물	-3866
▁해보	-3867
▁해요	-3868
▁호두	-3869
▁휘핑	-3870
▁흡수	-3871
▁힐링	-3872
가슴살	-3873
고기집	-3874
과자점	-3875
레미쉬	-3876
루치기	-3877
리에서	-3878
마세요	-3879
무화과	-3880
셨어요	-3881
소세지	-3882
스타일	-3883
시는데	-3884
어워즈	-3885
으면서	-3886
이라면	-3887
이어터	-3888
일부터	-3889
초만에	-3890
크림이	-3891
통조림	-3892
하지만	-3893
..!!	-3894
4:00	-3895
abyb	-3896
cafe	-3897
dang	-3898
even	-3899
step	-3900
uits	-3901
▁1/3	-3902
▁con	-3903
▁tai	-3904
▁가능하	-3905
▁같은데	-3906
▁그래도	-3907
▁글리터	-3908
▁다이소	-3909
▁닥터지	-3910
▁달콤한	-3911
▁덕분에	-3912
▁디져트	-3913
▁딕만스	-3914
▁레인보	-3915
▁리뉴얼	-3916
▁맛있었	-3917
▁먹어볼	-3918
▁먹으러	-3919
▁메론킥	-3920
▁무지개	-3921
▁미나리	-3922
▁밀가루	-3923
▁비비고	-3924
▁비비큐	-3925
▁비주얼	-3926
▁뿌시기	-3927
▁샐러드	-3928
▁생딸기	-3929
▁선크림	-3930
▁소시지	-3931
▁스모어	-3932
▁시나몬	-3933
▁실제로	-3934
▁아니면	-3935
▁아몬드	-3936
▁알맹이	-3937
▁어워즈	-3938
▁얼음물	-3939
▁없어서	-3940
▁이야기	-3941
▁이제야	-3942
▁있으면	-3943
▁자취생	-3944
▁추첨을	-3945
▁츄러스	-3946
▁친구가	-3947
▁크리미	-3948
▁크크크	-3949
▁풍미가	-3950
닭볶음탕	-3951
젤리먹방	-3952
파인애플	-3953
aking	-3954
▁6500	-3955
▁hamb	-3956
▁과일정과	-3957
▁내돈내산	-3958
▁노브랜드	-3959
▁다이어터	-3960
▁마요네즈	-3961
▁매장에서	-3962
▁먹어보자	-3963
▁먹어봐야	-3964
▁먹었어요	-3965
▁몰티져스	-3966
▁보내주신	-3967
▁부대찌개	-3968
▁사장님이	-3969
▁샌드위치	-3970
▁설탕시럽	-3971
▁소금불판	-3972
▁알고리즘	-3973
▁얼려먹기	-3974
▁여러분의	-3975
▁연어초밥	-3976
▁올리브유	-3977
▁일본음식	-3978
▁있습니다	-3979
▁제주공항	-3980
▁젼언니표	-3981
▁치즈소스	-3982
▁쿠팡에서	-3983
▁크리스피	-3984
▁큼직하게	-3985
▁통귤정과	-3986
▁프롬서희	-3987
▁피자맛집	-3988
▁해외간식	-3989
▁핵아이셔	-3990
로제떡볶이	-3991
명양과자점	-3992
뿌링치즈볼	-3993
시루케이크	-3994
elover	-3995
recipe	-3996
venien	-3997
▁onion	-3998
▁マシュマロ	-3999
▁동전오징어	-4000
▁띠미떡볶이	-4001
▁로제떡볶이	-4002
▁롯데백화점	-4003
▁삼겹살맛집	-4004
▁여러분들의	-4005
▁여러분들이	-4006
▁요거트월드	-4007
▁제주도맛집	-4008
▁제주도에서	-4009
▁젼둥이들은	-4010
▁좋아하시는	-4011
▁탕후루먹방	-4012
mrbeast	-4013
▁아이스크림을	-4014
▁확인해주세요	-4015
awshrimp	-4016
▁country	-4017
▁구슬아이스크림	-4018
▁슈프림양념치킨	-4019
▁핫치즈싸이순살	-4020
▁watermelon	-4021
▁spicynoodles	-4022
dubaichocolate	-4023
▁eatingmukbang	-4024
)~	-4025
22	-4026
EN	-4027
au	-4028
no	-4029
od	-4030
vl	-4031
▁Z	-4032
▁견	-4033
▁굳	-4034
▁긴	-4035
▁끼	-4036
▁눅	-4037
▁답	-4038
▁덜	-4039
▁덩	-4040
▁랩	-4041
▁빛	-4042
▁뻔	-4043
▁뽑	-4044
▁쇼	-4045
▁쉬	-4046
▁싼	-4047
▁쌉	-4048
▁악	-4049
▁앙	-4050
▁으	-4051
▁잼	-4052
▁쫜	-4053
▁캠	-4054
▁탑	-4055
▁탕	-4056
▁합	-4057
▁흔	-4058
▁흘	-4059
▁💡	-4060
▁🙋	-4061
✌🏻	-4062
겠습	-4063
고요	-4064
곶감	-4065
국밥	-4066
꾸덕	-4067
냈다	-4068
니에	-4069
다른	-4070
더스	-4071
라빵	-4072
랑제	-4073
레트	-4074
로나	-4075
리콘	-4076
망추	-4077
매운	-4078
먹던	-4079
먹밥	-4080
명이	-4081
바르	-4082
버려	-4083
번길	-4084
베트	-4085
보쌈	-4086
부장	-4087
분이	-4088
세럼	-4089
세용	-4090
세일	-4091
수있	-4092
슐리	-4093
스로	-4094
싶은	-4095
었고	-4096
영이	-4097
예약	-4098
주일	-4099
줘서	-4100
줘야	-4101
지않	-4102
지요	-4103
진짜	-4104
진한	-4105
카나	-4106
툼바	-4107
판왕	-4108
팟퐁	-4109
프레	-4110
피클	-4111
하네	-4112
하여	-4113
/19	-4114
cat	-4115
eal	-4116
fyp	-4117
our	-4118
▁64	-4119
▁71	-4120
▁78	-4121
▁90	-4122
▁MZ	-4123
▁bo	-4124
▁cu	-4125
▁jj	-4126
▁su	-4127
▁❤️	-4128
▁감태	-4129
▁강력	-4130
▁겉은	-4131
▁곁들	-4132
▁교토	-4133
▁그럼	-4134
▁깔끔	-4135
▁나눠	-4136
▁나의	-4137
▁낭낭	-4138
▁단단	-4139
▁대표	-4140
▁더더	-4141
▁더빙	-4142
▁덩어	-4143
▁돌려	-4144
▁두툼	-4145
▁드뎌	-4146
▁디쉬	-4147
▁딱딱	-4148
▁룸메	-4149
▁마법	-4150
▁많아	-4151
▁멸치	-4152
▁목포	-4153
▁믹스	-4154
▁민지	-4155
▁반반	-4156
▁반짝	-4157
▁비닐	-4158
▁비벼	-4159
▁사야	-4160
▁사전	-4161
▁수딩	-4162
▁수분	-4163
▁시장	-4164
▁시피	-4165
▁식단	-4166
▁실키	-4167
▁씹히	-4168
▁아구	-4169
▁아래	-4170
▁아무	-4171
▁아빠	-4172
▁아쉽	-4173
▁알아	-4174
▁양이	-4175
▁얘기	-4176
▁어느	-4177
▁없고	-4178
▁없음	-4179
▁영등	-4180
▁오래	-4181
▁오이	-4182
▁용량	-4183
▁이쁘	-4184
▁이틀	-4185
▁이후	-4186
▁일상	-4187
▁잡티	-4188
▁정식	-4189
▁젼벤	-4190
▁조심	-4191
▁조회	-4192
▁종합	-4193
▁중에	-4194
▁증말	-4195
▁지나	-4196
▁지역	-4197
▁참조	-4198
▁카레	-4199
▁코팅	-4200
▁큐브	-4201
▁키위	-4202
▁탄력	-4203
▁테무	-4204
▁통닭	-4205
▁특가	-4206
▁파란	-4207
▁파인	-4208
▁팝핑	-4209
▁팥빙	-4210
▁프루	-4211
▁한잔	-4212
▁한판	-4213
▁호떡	-4214
▁확실	-4215
▁힘들	-4216
니아르	-4217
다보니	-4218
달라고	-4219
달의맛	-4220
도리탕	-4221
디럭스	-4222
량진희	-4223
르키예	-4224
리라차	-4225
마카롱	-4226
만원대	-4227
맛피아	-4228
먹는다	-4229
먹어도	-4230
미스터	-4231
바게트	-4232
봤어요	-4233
비빔밥	-4234
사식당	-4235
십시오	-4236
올데이	-4237
움주의	-4238
젼둥이	-4239
쫀득빵	-4240
카라멜	-4241
칼빔면	-4242
하는데	-4243
하다가	-4244
한다고	-4245
했더니	-4246
alat	-4247
ango	-4248
game	-4249
quid	-4250
ries	-4251
▁112	-4252
▁600	-4253
▁Tte	-4254
▁min	-4255
▁강남구	-4256
▁고급진	-4257
▁기다려	-4258
▁기영이	-4259
▁끝판왕	-4260
▁날치알	-4261
▁노른자	-4262
▁놓치지	-4263
▁다시마	-4264
▁돌린다	-4265
▁돌아온	-4266
▁된다고	-4267
▁따뜻한	-4268
▁떡먹방	-4269
▁마들렌	-4270
▁만들고	-4271
▁맛나게	-4272
▁맛있고	-4273
▁묵은지	-4274
▁바쟉한	-4275
▁버거킹	-4276
▁부드러	-4277
▁분들께	-4278
▁분들이	-4279
▁불고기	-4280
▁브랜드	-4281
▁빵부장	-4282
▁살얼음	-4283
▁새우장	-4284
▁성동구	-4285
▁수빙수	-4286
▁스마트	-4287
▁스티키	-4288
▁스프라	-4289
▁시원한	-4290
▁식감도	-4291
▁실리콘	-4292
▁쌀국수	-4293
▁앞에서	-4294
▁애슐리	-4295
▁양파칩	-4296
▁여기서	-4297
▁영상에	-4298
▁오픈런	-4299
▁왔어요	-4300
▁원하는	-4301
▁위치한	-4302
▁을지로	-4303
▁이정도	-4304
▁이정후	-4305
▁젤리를	-4306
▁주문진	-4307
▁중국인	-4308
▁친구들	-4309
▁코코넛	-4310
▁크록스	-4311
▁털어서	-4312
▁통다리	-4313
▁파김치	-4314
▁판매중	-4315
▁팔레트	-4316
▁페이지	-4317
▁프랭크	-4318
▁하나씩	-4319
▁합니다	-4320
더라고요	-4321
레이더스	-4322
름크림떡	-4323
만드는법	-4324
메뉴추천	-4325
연어먹방	-4326
우스모크	-4327
치킨추천	-4328
플레이스	-4329
피넛버터	-4330
하자마자	-4331
tteok	-4332
uscat	-4333
▁2000	-4334
▁4900	-4335
▁タンフル	-4336
▁겨울간식	-4337
▁고춧가루	-4338
▁교촌치킨	-4339
▁닭볶음탕	-4340
▁도넛맛집	-4341
▁라면추천	-4342
▁라바치킨	-4343
▁링크에서	-4344
▁마오진젤	-4345
▁베이커리	-4346
▁브라우니	-4347
▁비슷할까	-4348
▁서울우유	-4349
▁세상에서	-4350
▁수박주스	-4351
▁신상과자	-4352
▁에이블리	-4353
▁연어캔디	-4354
▁유부초밥	-4355
▁유행간식	-4356
▁유행이라	-4357
▁젼벤져스	-4358
▁진심으로	-4359
▁프로모션	-4360
▁피자추천	-4361
▁휘낭시에	-4362
빅싸이순살	-4363
뿌링클먹방	-4364
통다리구이	-4365
abybel	-4366
pasaac	-4367
tiktok	-4368
▁chees	-4369
▁공차신메뉴	-4370
▁더블쉬림프	-4371
▁먹어보세요	-4372
▁먹어봤어요	-4373
▁명랑핫도그	-4374
▁발렌타인데	-4375
▁빼빼로데이	-4376
▁샤인머스켓	-4377
▁스프라이트	-4378
▁신상디저트	-4379
▁알려주세요	-4380
▁오리지널과	-4381
▁제주도카페	-4382
▁젼둥이들을	-4383
▁초콜릿먹방	-4384
▁황금올리브	-4385
▁Kimchi	-4386
▁만들어보세요	-4387
▁보일링어니언	-4388
▁성심당무화과	-4389
▁수건케이크를	-4390
▁아이스플랜트	-4391
▁올리브영에서	-4392
연세우유크림빵	-4393
우스모크디럭스	-4394
nongshim	-4395
quidgame	-4396
ᄏᄏᄏᄏᄏᄏᄏᄏ	-4397
Chocolate	-4398
▁convenien	-4399
lavachicken	-4400
pasaackorea	-4401
▁Tteokbokki	-4402
▁15:00-17:00	-4403
▁marshmallow	-4404
▁mukbangshow	-4405
▁baskinrobbins	-4406
▁koreanchicken	-4407
/4	-4408
/5	-4409
44	-4410
50	-4411
ad	-4412
cm	-4413
ds	-4414
eg	-4415
if	-4416
ld	-4417
pe	-4418
su	-4419
▁|	-4420
▁”	-4421
▁▶	-4422
▁ク	-4423
▁メ	-4424
▁곱	-4425
▁군	-4426
▁끌	-4427
▁낋	-4428
▁넉	-4429
▁됌	-4430
▁딥	-4431
▁똥	-4432
▁뚱	-4433
▁링	-4434
▁뮤	-4435
▁봐	-4436
▁뺨	-4437
▁샀	-4438
▁싱	-4439
▁앉	-4440
▁줬	-4441
▁쥬	-4442
▁즉	-4443
▁챗	-4444
▁철	-4445
▁텐	-4446
▁홀	-4447
▁환	-4448
▁훈	-4449
▁흐	-4450
▁흰	-4451
▁🍔	-4452
▁🍩	-4453
▁📣	-4454
▁🧈	-4455
가기	-4456
강남	-4457
강의	-4458
강추	-4459
개월	-4460
곤약	-4461
그니	-4462
근교	-4463
기로	-4464
기만	-4465
끈한	-4466
나도	-4467
낙지	-4468
냐구	-4469
넣고	-4470
단백	-4471
달샘	-4472
대가	-4473
도에	-4474
돌이	-4475
드기	-4476
들샷	-4477
라닭	-4478
라봉	-4479
래스	-4480
레몬	-4481
레빌	-4482
로리	-4483
로운	-4484
르기	-4485
르는	-4486
르면	-4487
리쉬	-4488
리즈	-4489
리지	-4490
모자	-4491
물성	-4492
미들	-4493
민초	-4494
배추	-4495
베큐	-4496
보는	-4497
보신	-4498
봉지	-4499
봐요	-4500
부들	-4501
분께	-4502
불호	-4503
뿌요	-4504
사과	-4505
사삭	-4506
소리	-4507
수제	-4508
스쿨	-4509
시죠	-4510
신선	-4511
아메	-4512
아오	-4513
어나	-4514
어울	-4515
얼빈	-4516
여수	-4517
오는	-4518
왕탕	-4519
외선	-4520
우석	-4521
원이	-4522
으신	-4523
을때	-4524
이란	-4525
이블	-4526
일에	-4527
잉크	-4528
자나	-4529
정식	-4530
종류	-4531
종원	-4532
주시	-4533
짜장	-4534
째로	-4535
초초	-4536
카츠	-4537
콜팝	-4538
키지	-4539
투어	-4540
트리	-4541
팽이	-4542
폭탄	-4543
퐁신	-4544
프로	-4545
하루	-4546
하트	-4547
한거	-4548
한게	-4549
한식	-4550
함을	-4551
🇰🇷	-4552
🍫🍫	-4553
,,,	-4554
,,🌟	-4555
,,🤤	-4556
..😱	-4557
/30	-4558
aff	-4559
ara	-4560
ato	-4561
ela	-4562
ill	-4563
lov	-4564
mar	-4565
oll	-4566
orn	-4567
pot	-4568
shi	-4569
▁(3	-4570
▁66	-4571
▁81	-4572
▁82	-4573
▁87	-4574
▁99	-4575
▁Fr	-4576
▁OK	-4577
▁ᄀᄀ	-4578
▁가로	-4579
▁감싸	-4580
▁감초	-4581
▁계곡	-4582
▁계정	-4583
▁곶감	-4584
▁국룰	-4585
▁그게	-4586
▁김포	-4587
▁껍질	-4588
▁꿀템	-4589
▁낋여	-4590
▁날아	-4591
▁넉넉	-4592
▁노릇	-4593
▁놀러	-4594
▁눅눅	-4595
▁단순	-4596
▁당근	-4597
▁라티	-4598
▁만날	-4599
▁만에	-4600
▁맘에	-4601
▁맵찔	-4602
▁모른	-4603
▁몰랐	-4604
▁몸에	-4605
▁문어	-4606
▁물회	-4607
▁미리	-4608
▁미역	-4609
▁바다	-4610
▁박스	-4611
▁발효	-4612
▁번역	-4613
▁벌써	-4614
▁보면	-4615
▁보신	-4616
▁보지	-4617
▁부담	-4618
▁부들	-4619
▁뷰티	-4620
▁비법	-4621
▁빵이	-4622
▁뿌링	-4623
▁사연	-4624
▁상황	-4625
▁생산	-4626
▁섞어	-4627
▁세계	-4628
▁수육	-4629
▁수준	-4630
▁쉽게	-4631
▁쉽지	-4632
▁시켰	-4633
▁싶을	-4634
▁쌈장	-4635
▁어묵	-4636
▁에프	-4637
▁오동	-4638
▁왜케	-4639
▁요고	-4640
▁워터	-4641
▁유사	-4642
▁육수	-4643
▁입점	-4644
▁입학	-4645
▁있던	-4646
▁있었	-4647
▁작은	-4648
▁잡아	-4649
▁저녁	-4650
▁저만	-4651
▁전복	-4652
▁전분	-4653
▁정체	-4654
▁제사	-4655
▁제조	-4656
▁죄송	-4657
▁중간	-4658
▁짭쪼	-4659
▁참깨	-4660
▁찾기	-4661
▁처럼	-4662
▁체험	-4663
▁택시	-4664
▁투명	-4665
▁튀기	-4666
▁트루	-4667
▁특유	-4668
▁팔도	-4669
▁포기	-4670
▁폭탄	-4671
▁퐁듀	-4672
▁피져	-4673
▁학교	-4674
▁해먹	-4675
▁했던	-4676
▁허니	-4677
▁협찬	-4678
▁홍보	-4679
▁효과	-4680
고소한	-4681
기념품	-4682
까르보	-4683
다시마	-4684
다이닝	-4685
닭강정	-4686
도시락	-4687
라이밀	-4688
라이스	-4689
밀키트	-4690
반달샘	-4691
배홍동	-4692
베이글	-4693
스러운	-4694
스위스	-4695
시나요	-4696
시리얼	-4697
시태그	-4698
어먹는	-4699
읍니다	-4700
줍니다	-4701
첩분식	-4702
추천템	-4703
카콜라	-4704
쿠르트	-4705
트러플	-4706
파르페	-4707
프라페	-4708
해주신	-4709
,,🫶🏻	-4710
akes	-4711
jeju	-4712
orld	-4713
wach	-4714
~~~~	-4715
▁180	-4716
▁BHC	-4717
▁bhc	-4718
▁eat	-4719
▁kfc	-4720
▁typ	-4721
▁가득한	-4722
▁간식을	-4723
▁감자전	-4724
▁곰돌이	-4725
▁과일을	-4726
▁기계로	-4727
▁끓인다	-4728
▁나라별	-4729
▁내용은	-4730
▁달왕탕	-4731
▁닭다리	-4732
▁담백한	-4733
▁대용량	-4734
▁데이트	-4735
▁됩니다	-4736
▁들어갔	-4737
▁땡기는	-4738
▁똑같이	-4739
▁레츠고	-4740
▁링크로	-4741
▁마늘빵	-4742
▁맛까지	-4743
▁맛없없	-4744
▁맛있네	-4745
▁맞나요	-4746
▁먹는거	-4747
▁먹을수	-4748
▁메론빵	-4749
▁무엇을	-4750
▁미쳤음	-4751
▁발견한	-4752
▁방이동	-4753
▁버터가	-4754
▁보이는	-4755
▁부모님	-4756
▁붓는다	-4757
▁새벽에	-4758
▁생새우	-4759
▁샤베트	-4760
▁섞어서	-4761
▁선제품	-4762
▁설탕을	-4763
▁소스로	-4764
▁쉐이크	-4765
▁쉬림프	-4766
▁시그니	-4767
▁시리얼	-4768
▁신세계	-4769
▁실치회	-4770
▁실키젬	-4771
▁어디서	-4772
▁어렸을	-4773
▁얼리면	-4774
▁엄마가	-4775
▁오뎅바	-4776
▁올라간	-4777
▁요리에	-4778
▁원재료	-4779
▁음식에	-4780
▁음식을	-4781
▁일주일	-4782
▁있었던	-4783
▁자외선	-4784
▁잘하는	-4785
▁제품을	-4786
▁젤리는	-4787
▁젤리에	-4788
▁조회수	-4789
▁존맛탱	-4790
▁종로구	-4791
▁쫄깃한	-4792
▁참기름	-4793
▁치킨을	-4794
▁치필링	-4795
▁카카오	-4796
▁캔디드	-4797
▁컵라면	-4798
▁케이엠	-4799
▁콜라겐	-4800
▁크림을	-4801
▁통으로	-4802
▁통째로	-4803
▁포인트	-4804
▁플레이	-4805
▁피부가	-4806
▁필요한	-4807
▁했더니	-4808
▁했지만	-4809
겠습니까	-4810
고기사쥬	-4811
동결건조	-4812
두루치기	-4813
드립니다	-4814
마라샹궈	-4815
먹자골목	-4816
연어초밥	-4817
잔망루피	-4818
지마세요	-4819
카다이프	-4820
팟퐁커리	-4821
프라이어	-4822
해주셔서	-4823
agram	-4824
gbang	-4825
hanie	-4826
ibigo	-4827
nacks	-4828
oughn	-4829
pasta	-4830
tonge	-4831
▁2500	-4832
▁4000	-4833
▁5000	-4834
▁Mala	-4835
▁cold	-4836
▁kind	-4837
▁간식리뷰	-4838
▁계신가요	-4839
▁과일먹방	-4840
▁과자가게	-4841
▁광장시장	-4842
▁구황작물	-4843
▁꿔바로우	-4844
▁너무너무	-4845
▁달콤바삭	-4846
▁닭가슴살	-4847
▁드립니다	-4848
▁딸기초코	-4849
▁땅콩버터	-4850
▁라티아오	-4851
▁레인보우	-4852
▁마트에서	-4853
▁만들어서	-4854
▁말랑쫀득	-4855
▁맛있는거	-4856
▁망고젤리	-4857
▁먹었는데	-4858
▁명란마요	-4859
▁버터샌드	-4860
▁불닭마요	-4861
▁사전예약	-4862
▁생각보다	-4863
▁서울근교	-4864
▁수박젤리	-4865
▁수제버거	-4866
▁스마트팜	-4867
▁예약주문	-4868
▁올레시장	-4869
▁요청받은	-4870
▁용암먹방	-4871
▁일본가면	-4872
▁자극적인	-4873
▁젤리블리	-4874
▁종류별로	-4875
▁중국음식	-4876
▁초밥먹방	-4877
▁초코코팅	-4878
▁타이페이	-4879
▁튀르키예	-4880
▁프로미들	-4881
▁피자먹방	-4882
팝업스토어	-4883
프라푸치노	-4884
흑백요리사	-4885
!!!!!!	-4886
cookie	-4887
ecipes	-4888
mellow	-4889
seodam	-4890
tstore	-4891
wachae	-4892
wedish	-4893
▁Ramen	-4894
▁남겨주시면	-4895
▁먹어보았다	-4896
▁벽돌초콜릿	-4897
▁신라면툼바	-4898
▁여러분들은	-4899
▁일본디저트	-4900
▁좋아하는데	-4901
▁짜장떡볶이	-4902
▁출시했다고	-4903
▁카다이프가	-4904
▁파인다이닝	-4905
세대쫀득쿠키	-4906
alatang	-4907
asmrmuk	-4908
▁shrimp	-4909
▁tiktok	-4910
▁동결건조젤리	-4911
▁동명양과자점	-4912
▁라라스윗저당	-4913
▁미스터비스트	-4914
▁부산빵지순례	-4915
▁스텔라떡볶이	-4916
▁아이스크림에	-4917
▁인생을맛있게	-4918
▁잠실맛집추천	-4919
▁편의점꿀조합	-4920
▁10:30-2	-4921
▁Youtube	-4922
▁samyang	-4923
▁초코아이스크림	-4924
▁하리보코하쿠토	-4925
stephanie	-4926
tongtonge	-4927
▁homecook	-4928
▁더블쉬림프크런치	-4929
▁와우스모크디럭스	-4930
▁핫치즈빅싸이순살	-4931
tteokbokki	-4932
▁saltbread	-4933
▁viralfood	-4934
asmrmukgbang	-4935
▁mukbangeating	-4936
stephaniekimchi	-4937
▁asmreatingfood	-4938
!✨	-4939
(5	-4940
++	-4941
.0	-4942
12	-4943
6(	-4944
cr	-4945
he	-4946
jj	-4947
oh	-4948
os	-4949
sn	-4950
ss	-4951
vd	-4952
ᄉᄒ	-4953
•^	-4954
▁>	-4955
▁⭐	-4956
▁ア	-4957
▁ド	-4958
▁괴	-4959
▁꽉	-4960
▁꽤	-4961
▁낮	-4962
▁널	-4963
▁덮	-4964
▁됐	-4965
▁떨	-4966
▁떼	-4967
▁렛	-4968
▁묻	-4969
▁뱀	-4970
▁병	-4971
▁붙	-4972
▁빽	-4973
▁윙	-4974
▁음	-4975
▁젖	-4976
▁줌	-4977
▁쪽	-4978
▁친	-4979
▁침	-4980
▁틈	-4981
▁표	-4982
▁🍞	-4983
▁💚	-4984
▁📢	-4985
イチ	-4986
スマ	-4987
デザ	-4988
ヌヌ	-4989
リン	-4990
가막	-4991
걸로	-4992
겐다	-4993
계인	-4994
과류	-4995
군가	-4996
궁합	-4997
그래	-4998
근처	-4999
깃집	-5000
까스	-5001
꾸떡	-5002
나코	-5003
내가	-5004
노탱	-5005
는거	-5006
다크	-5007
대전	-5008
도전	-5009
되신	-5010
드라	-5011
뚜론	-5012
라도	-5013
럼블	-5014
로도	-5015
로쉐	-5016
마카	-5017
마켓	-5018
먹었	-5019
무한	-5020
문에	-5021
바가	-5022
박사	-5023
백숙	-5024
버드	-5025
보면	-5026
블러	-5027
블루	-5028
빌레	-5029
뻐서	-5030
사랑	-5031
산로	-5032
살벌	-5033
상한	-5034
성공	-5035
셨던	-5036
수분	-5037
스티	-5038
시카	-5039
식품	-5040
야장	-5041
양파	-5042
어때	-5043
어유	-5044
어지	-5045
에선	-5046
여름	-5047
역점	-5048
오독	-5049
오리	-5050
와퍼	-5051
왔다	-5052
용산	-5053
윙봉	-5054
으러	-5055
의도	-5056
이든	-5057
이번	-5058
이즐	-5059
이팅	-5060
인디	-5061
인줄	-5062
잘알	-5063
적이	-5064
제작	-5065
줄기	-5066
중국	-5067
중인	-5068
쥬얼	-5069
지컬	-5070
지피	-5071
질로	-5072
짬뽕	-5073
쫄면	-5074
쭈바	-5075
초생	-5076
추가	-5077
치케	-5078
카야	-5079
컬리	-5080
크닉	-5081
키티	-5082
타마	-5083
택배	-5084
테니	-5085
텐츠	-5086
톨렌	-5087
통통	-5088
투썸	-5089
파는	-5090
포로	-5091
포포	-5092
프루	-5093
한국	-5094
한맛	-5095
한번	-5096
할수	-5097
할인	-5098
행사	-5099
향이	-5100
🇨🇳	-5101
👍👍	-5102
🙌🏻	-5103
!!(	-5104
!!🤭	-5105
!❤️	-5106
/31	-5107
ENT	-5108
ant	-5109
arb	-5110
asm	-5111
ces	-5112
dun	-5113
ery	-5114
ewy	-5115
hut	-5116
nav	-5117
onf	-5118
oom	-5119
tew	-5120
tti	-5121
wan	-5122
▁!!	-5123
▁(+	-5124
▁(7	-5125
▁1,	-5126
▁69	-5127
▁DM	-5128
▁gr	-5129
▁➡️	-5130
▁クリ	-5131
▁갖고	-5132
▁개인	-5133
▁건데	-5134
▁것도	-5135
▁결국	-5136
▁계획	-5137
▁고객	-5138
▁고래	-5139
▁고맙	-5140
▁골라	-5141
▁과육	-5142
▁구수	-5143
▁구입	-5144
▁구현	-5145
▁그릇	-5146
▁끝나	-5147
▁노포	-5148
▁누데	-5149
▁단독	-5150
▁단돈	-5151
▁당면	-5152
▁대로	-5153
▁대상	-5154
▁대한	-5155
▁대회	-5156
▁더해	-5157
▁동생	-5158
▁되면	-5159
▁두부	-5160
▁들고	-5161
▁따로	-5162
▁때도	-5163
▁땡기	-5164
▁똥손	-5165
▁랩핑	-5166
▁럭키	-5167
▁렛츠	-5168
▁링고	-5169
▁만원	-5170
▁말이	-5171
▁맛난	-5172
▁맥주	-5173
▁머리	-5174
▁멜로	-5175
▁모듬	-5176
▁미백	-5177
▁바뀌	-5178
▁바라	-5179
▁밖에	-5180
▁반응	-5181
▁발산	-5182
▁배터	-5183
▁벚꽃	-5184
▁보니	-5185
▁보들	-5186
▁보쌈	-5187
▁보여	-5188
▁부분	-5189
▁부셔	-5190
▁부추	-5191
▁빨간	-5192
▁빨리	-5193
▁뿌셔	-5194
▁사각	-5195
▁사골	-5196
▁사쥬	-5197
▁삼성	-5198
▁서담	-5199
▁성게	-5200
▁성우	-5201
▁셰프	-5202
▁소름	-5203
▁소바	-5204
▁속은	-5205
▁손이	-5206
▁솔티	-5207
▁슈퍼	-5208
▁스시	-5209
▁스프	-5210
▁시식	-5211
▁시완	-5212
▁시즌	-5213
▁신맛	-5214
▁신촌	-5215
▁싫어	-5216
▁아님	-5217
▁아르	-5218
▁아쉬	-5219
▁악플	-5220
▁애플	-5221
▁어려	-5222
▁어렵	-5223
▁어향	-5224
▁업그	-5225
▁없다	-5226
▁에드	-5227
▁여긴	-5228
▁오독	-5229
▁올린	-5230
▁와서	-5231
▁요구	-5232
▁요월	-5233
▁원탑	-5234
▁유니	-5235
▁은은	-5236
▁의상	-5237
▁입장	-5238
▁작성	-5239
▁장소	-5240
▁재밌	-5241
▁저거	-5242
▁저를	-5243
▁저번	-5244
▁저희	-5245
▁졸업	-5246
▁종이	-5247
▁즉석	-5248
▁즐거	-5249
▁지하	-5250
▁질기	-5251
▁쭉쭉	-5252
▁찐빵	-5253
▁초대	-5254
▁카드	-5255
▁케찹	-5256
▁크레	-5257
▁타임	-5258
▁택배	-5259
▁튀긴	-5260
▁특이	-5261
▁파티	-5262
▁패티	-5263
▁포함	-5264
▁폼폼	-5265
▁피칸	-5266
▁한달	-5267
▁한상	-5268
▁함유	-5269
▁해드	-5270
▁향긋	-5271
▁헤어	-5272
▁현대	-5273
▁현상	-5274
▁현재	-5275
▁호주	-5276
▁후식	-5277
▁흑당	-5278
⬇️)	-5279
スマス	-5280
가루를	-5281
감자전	-5282
겐다즈	-5283
곱찜닭	-5284
구매처	-5285
기까지	-5286
나무숲	-5287
날치알	-5288
답니다	-5289
당첨자	-5290
동카페	-5291
등학생	-5292
라이트	-5293
랍니다	-5294
레이드	-5295
레이프	-5296
로투스	-5297
루오뎅	-5298
마카세	-5299
맛도리	-5300
먹어야	-5301
명에게	-5302
버리기	-5303
베이컨	-5304
분들도	-5305
브레드	-5306
블랑제	-5307
사인회	-5308
셀로나	-5309
야시장	-5310
연남동	-5311
였는데	-5312
오레오	-5313
오세요	-5314
왕족발	-5315
요아정	-5316
으로도	-5317
을까요	-5318
이즐넛	-5319
있는데	-5320
장에서	-5321
주시는	-5322
지피티	-5323
천시장	-5324
초꾸떡	-5325
츄러스	-5326
크래치	-5327
텀블러	-5328
통연어	-5329
팽이쌈	-5330
하다고	-5331
하던데	-5332
하시는	-5333
할게요	-5334
호쿠키	-5335
흑임자	-5336
..❤️	-5337
0:00	-5338
boil	-5339
dduk	-5340
vlvd	-5341
ᅲᅲᅲᅲ	-5342
▁101	-5343
▁102	-5344
▁135	-5345
▁150	-5346
▁box	-5347
▁가격이	-5348
▁견과류	-5349
▁구매처	-5350
▁구매한	-5351
▁그동안	-5352
▁그런데	-5353
▁극강의	-5354
▁금요일	-5355
▁기가막	-5356
▁기름이	-5357
▁끓어오	-5358
▁끝까지	-5359
▁누군가	-5360
▁니아르	-5361
▁대박인	-5362
▁대존맛	-5363
▁대학생	-5364
▁도시락	-5365
▁드시는	-5366
▁떡꼬치	-5367
▁리들샷	-5368
▁마법의	-5369
▁많아서	-5370
▁매콤한	-5371
▁몸보신	-5372
▁뮤지컬	-5373
▁바게트	-5374
▁백종원	-5375
▁변우석	-5376
▁브륄레	-5377
▁비슷한	-5378
▁비쥬얼	-5379
▁빛나는	-5380
▁뺨치는	-5381
▁사장님	-5382
▁서울역	-5383
▁설탕이	-5384
▁소스별	-5385
▁손바닥	-5386
▁숯불에	-5387
▁스키피	-5388
▁시럽이	-5389
▁시리즈	-5390
▁쌉가능	-5391
▁씹히는	-5392
▁아이들	-5393
▁아이브	-5394
▁안되는	-5395
▁안좋아	-5396
▁않아서	-5397
▁양념에	-5398
▁어떤게	-5399
▁어떨까	-5400
▁어른이	-5401
▁엄마표	-5402
▁엄청난	-5403
▁여의도	-5404
▁연어를	-5405
▁엽떡에	-5406
▁영등포	-5407
▁예쁘고	-5408
▁오늘의	-5409
▁올린다	-5410
▁올해의	-5411
▁원픽은	-5412
▁월요일	-5413
▁음료수	-5414
▁입맛에	-5415
▁입학식	-5416
▁잘어울	-5417
▁제품은	-5418
▁젤리도	-5419
▁조합은	-5420
▁주문시	-5421
▁준비한	-5422
▁줄서서	-5423
▁즐기는	-5424
▁지락실	-5425
▁짭쪼름	-5426
▁쫀쫀한	-5427
▁쭈쭈바	-5428
▁청포묵	-5429
▁카이막	-5430
▁캐비어	-5431
▁쿨타임	-5432
▁통통이	-5433
▁파사삭	-5434
▁프레즐	-5435
▁하르방	-5436
▁하버드	-5437
▁하얼빈	-5438
▁하하하	-5439
▁한국판	-5440
▁한라봉	-5441
▁화이팅	-5442
▁활용도	-5443
▁후르츠	-5444
▁후참잘	-5445
デザート	-5446
간장게장	-5447
과자가게	-5448
딸기모찌	-5449
레드벨벳	-5450
무한리필	-5451
뺑스위스	-5452
송이버섯	-5453
스리라차	-5454
스마니에	-5455
스타벅스	-5456
자메이카	-5457
젼둥이들	-5458
초콜릿이	-5459
..?🫶🏻	-5460
apage	-5461
arbon	-5462
atcha	-5463
elato	-5464
jelly	-5465
punch	-5466
▁Rice	-5467
▁감사해요	-5468
▁고기듬뿍	-5469
▁구워먹는	-5470
▁누데이크	-5471
▁단짠단짠	-5472
▁두바이식	-5473
▁들어가서	-5474
▁디저트가	-5475
▁디저트로	-5476
▁디저트를	-5477
▁딸기우유	-5478
▁떡볶이를	-5479
▁롯데리아	-5480
▁링고아메	-5481
▁만두기계	-5482
▁만들어보	-5483
▁만들어줬	-5484
▁매움주의	-5485
▁먹어보았	-5486
▁미국에서	-5487
▁바삭하게	-5488
▁부드럽고	-5489
▁브이로그	-5490
▁사왔는데	-5491
▁샤브샤브	-5492
▁서브웨이	-5493
▁서울에서	-5494
▁소보로빵	-5495
▁스크래치	-5496
▁시그니처	-5497
▁신선과일	-5498
▁싸먹으면	-5499
▁앞으로도	-5500
▁야쿠르트	-5501
▁어향가지	-5502
▁요구르트	-5503
▁요청하신	-5504
▁유튜버가	-5505
▁유행중인	-5506
▁육즙팡팡	-5507
▁이사장표	-5508
▁장어덮밥	-5509
▁조개구이	-5510
▁중국당면	-5511
▁챗지피티	-5512
▁초콜렛이	-5513
▁최저가로	-5514
▁컵떡볶이	-5515
▁케이크를	-5516
▁통복숭아	-5517
▁파니포포	-5518
▁편의점표	-5519
▁플라이밀	-5520
▁플레이트	-5521
▁필수코스	-5522
▁하겐다즈	-5523
▁해시태그	-5524
▁홍대맛집	-5525
데이트추천	-5526
동맛집추천	-5527
세븐일레븐	-5528
슈프림치킨	-5529
엽기떡볶이	-5530
일본편의점	-5531
치즈케이크	-5532
파베크림콘	-5533
한우곱찜닭	-5534
🤦🏻‍♀️	-5535
lavors	-5536
salmon	-5537
▁Dubai	-5538
▁foodg	-5539
▁foods	-5540
▁kinds	-5541
▁クリスマス	-5542
▁경기도맛집	-5543
▁구름크림떡	-5544
▁기영이숯불	-5545
▁끓어오르면	-5546
▁나왔습니다	-5547
▁남겨주세요	-5548
▁납작복숭아	-5549
▁들어있어서	-5550
▁딸기찹쌀떡	-5551
▁만들어주는	-5552
▁말아먹으면	-5553
▁먹어야하는	-5554
▁벽돌초콜렛	-5555
▁스웨덴젤리	-5556
▁신전떡볶이	-5557
▁아이파크몰	-5558
▁업그레이드	-5559
▁용암케이크	-5560
▁좋아하세요	-5561
▁중국인들만	-5562
▁케이크맛집	-5563
▁크림파스타	-5564
▁트레이더스	-5565
▁틱톡어워즈	-5566
▁편의점음식	-5567
▁프랭크버거	-5568
▁햄버거맛집	-5569
▁햄버거먹방	-5570
▁🙋🏻‍♀️	-5571
가지치즈불닭	-5572
부산빵지순례	-5573
불닭납작당면	-5574
acarons	-5575
cestore	-5576
ibimbap	-5577
▁고추장등갈비	-5578
▁꿀젤리모나카	-5579
▁나폴리맛피아	-5580
▁딸기요거트바	-5581
▁베스킨라빈스	-5582
▁스웨디쉬캔디	-5583
▁아이스크림이	-5584
▁에어프라이어	-5585
▁출시하자마자	-5586
▁함박스테이크	-5587
▁홍대맛집추천	-5588
▁후라이드치킨	-5589
apagetti	-5590
arbonara	-5591
▁12:00-2	-5592
▁mrbeast	-5593
▁강남데이트코스	-5594
▁아이스크림맛집	-5595
▁연남동카페추천	-5596
▁제주도맛집추천	-5597
▁크리스마스간식	-5598
요거트아이스크림	-5599
:00-01:00	-5600
saltbread	-5601
▁pizzahut	-5602
▁tiramisu	-5603
▁hamburger	-5604
▁squidgame	-5605
▁자메이카통다리구이	-5606
▁편의점두바이초콜릿	-5607
▁Marshmallow	-5608
▁dessertlover	-5609
▁japanesefood	-5610
▁koreandessert	-5611
!🌟	-5612
!🤭	-5613
(2	-5614
)+	-5615
->	-5616
2)	-5617
31	-5618
40	-5619
?(	-5620
ER	-5621
UN	-5622
ao	-5623
cu	-5624
ex	-5625
iv	-5626
kg	-5627
lu	-5628
ly	-5629
pr	-5630
sp	-5631
vs	-5632
xi	-5633
~7	-5634
ᄌᄃ	-5635
ᄏᄒ	-5636
▁ฅ	-5637
▁★	-5638
▁겨	-5639
▁권	-5640
▁깻	-5641
▁끈	-5642
▁냠	-5643
▁넷	-5644
▁눌	-5645
▁님	-5646
▁댑	-5647
▁뒷	-5648
▁듣	-5649
▁딸	-5650
▁뚝	-5651
▁뛰	-5652
▁러	-5653
▁맑	-5654
▁밍	-5655
▁벗	-5656
▁빈	-5657
▁뻥	-5658
▁숏	-5659
▁썼	-5660
▁쓸	-5661
▁엉	-5662
▁옥	-5663
▁욕	-5664
▁윤	-5665
▁잊	-5666
▁짠	-5667
▁척	-5668
▁캔	-5669
▁컨	-5670
▁톤	-5671
▁틴	-5672
▁폴	-5673
▁풋	-5674
▁헐	-5675
▁🍇	-5676
▁🍕	-5677
▁🍟	-5678
▁🍡	-5679
✋✋	-5680
✋🏻	-5681
コレ	-5682
ッキ	-5683
가도	-5684
가실	-5685
가야	-5686
갈치	-5687
감태	-5688
거야	-5689
건데	-5690
겨서	-5691
계탕	-5692
곰탕	-5693
공구	-5694
그릇	-5695
기를	-5696
긴급	-5697
년에	-5698
노화	-5699
농심	-5700
느라	-5701
님을	-5702
담백	-5703
닷컴	-5704
당도	-5705
던스	-5706
도록	-5707
도르	-5708
들어	-5709
또는	-5710
띠끄	-5711
라운	-5712
라임	-5713
라틴	-5714
람떡	-5715
래떡	-5716
량이	-5717
러쉬	-5718
레임	-5719
려면	-5720
로니	-5721
롭게	-5722
르신	-5723
름달	-5724
리또	-5725
리비	-5726
릭스	-5727
링을	-5728
마감	-5729
마루	-5730
마차	-5731
만든	-5732
맥주	-5733
머리	-5734
먹터	-5735
메밀	-5736
모스	-5737
모음	-5738
모짜	-5739
문의	-5740
물에	-5741
믈렛	-5742
바위	-5743
반죽	-5744
발면	-5745
발표	-5746
밥에	-5747
방산	-5748
배송	-5749
버블	-5750
보기	-5751
보들	-5752
보셔	-5753
봉뵈	-5754
부러	-5755
북이	-5756
비비	-5757
비아	-5758
비지	-5759
빵이	-5760
뿌링	-5761
사각	-5762
사시	-5763
삼겹	-5764
상품	-5765
색이	-5766
생채	-5767
석잠	-5768
센터	-5769
센트	-5770
셔야	-5771
수량	-5772
수저	-5773
슈가	-5774
스팸	-5775
시길	-5776
시스	-5777
실에	-5778
실한	-5779
아니	-5780
악한	-5781
어묵	-5782
어야	-5783
언트	-5784
여라	-5785
였다	-5786
와인	-5787
요뜨	-5788
우동	-5789
우우	-5790
움바	-5791
육수	-5792
율이	-5793
으며	-5794
으시	-5795
의정	-5796
이들	-5797
이래	-5798
이를	-5799
이었	-5800
이오	-5801
있게	-5802
장에	-5803
전문	-5804
절이	-5805
정육	-5806
제리	-5807
제일	-5808
제한	-5809
조각	-5810
주년	-5811
줘요	-5812
쥔젤	-5813
지가	-5814
지고	-5815
지락	-5816
지면	-5817
직구	-5818
집은	-5819
쩌는	-5820
참여	-5821
축하	-5822
춥스	-5823
칼칼	-5824
코너	-5825
코코	-5826
콤보	-5827
퀸즈	-5828
타이	-5829
트럭	-5830
파구	-5831
파리	-5832
파삭	-5833
평가	-5834
풍기	-5835
피즈	-5836
피칸	-5837
픽스	-5838
하라	-5839
하실	-5840
하이	-5841
하자	-5842
허니	-5843
회사	-5844
히려	-5845
히토	-5846
🇹🇷	-5847
🍓🍊	-5848
🔥🔥	-5849
🙂‍	-5850
🙏🏻	-5851
!!)	-5852
!!😍	-5853
..🌟	-5854
..🤤	-5855
/11	-5856
25_	-5857
?❤️	-5858
ANG	-5859
aft	-5860
aid	-5861
ari	-5862
ase	-5863
bak	-5864
bur	-5865
cho	-5866
eas	-5867
end	-5868
est	-5869
eun	-5870
jeo	-5871
kfc	-5872
lac	-5873
lla	-5874
oon	-5875
ork	-5876
ott	-5877
sul	-5878
ull	-5879
utt	-5880
zen	-5881
▁08	-5882
▁09	-5883
▁7.	-5884
▁89	-5885
▁95	-5886
▁OP	-5887
▁SO	-5888
▁Sp	-5889
▁ai	-5890
▁is	-5891
▁to	-5892
▁ᄒᄒ	-5893
▁가기	-5894
▁가위	-5895
▁가족	-5896
▁갈릭	-5897
▁갈비	-5898
▁강화	-5899
▁건더	-5900
▁게시	-5901
▁결정	-5902
▁결제	-5903
▁경험	-5904
▁고고	-5905
▁고수	-5906
▁구경	-5907
▁구우	-5908
▁국민	-5909
▁그거	-5910
▁그때	-5911
▁그렇	-5912
▁그만	-5913
▁극찬	-5914
▁깻잎	-5915
▁꿀맛	-5916
▁나머	-5917
▁나서	-5918
▁날씨	-5919
▁낫또	-5920
▁넘어	-5921
▁넷플	-5922
▁노랑	-5923
▁녹인	-5924
▁녹차	-5925
▁논현	-5926
▁높은	-5927
▁다크	-5928
▁단면	-5929
▁담아	-5930
▁당고	-5931
▁당류	-5932
▁대게	-5933
▁댑악	-5934
▁더욱	-5935
▁덕후	-5936
▁도착	-5937
▁동묘	-5938
▁되었	-5939
▁두고	-5940
▁두께	-5941
▁든든	-5942
▁디엠	-5943
▁떡이	-5944
▁뜨는	-5945
▁라떼	-5946
▁로사	-5947
▁립톤	-5948
▁마스	-5949
▁만족	-5950
▁많았	-5951
▁말모	-5952
▁맛나	-5953
▁망한	-5954
▁맨날	-5955
▁먹게	-5956
▁먹음	-5957
▁메리	-5958
▁명절	-5959
▁무그	-5960
▁무뼈	-5961
▁무화	-5962
▁묵직	-5963
▁물에	-5964
▁뭔가	-5965
▁민감	-5966
▁바닥	-5967
▁반전	-5968
▁받았	-5969
▁받으	-5970
▁받을	-5971
▁배고	-5972
▁배떡	-5973
▁버전	-5974
▁번쩍	-5975
▁보관	-5976
▁보이	-5977
▁복수	-5978
▁본품	-5979
▁부서	-5980
▁부어	-5981
▁비밀	-5982
▁비용	-5983
▁비치	-5984
▁빵도	-5985
▁빵을	-5986
▁빵집	-5987
▁뻥튀	-5988
▁뽑아	-5989
▁뿌린	-5990
▁사는	-5991
▁사천	-5992
▁산뜻	-5993
▁산타	-5994
▁살이	-5995
▁상단	-5996
▁상승	-5997
▁상품	-5998
▁선정	-5999
▁설날	-6000
▁설빙	-6001
▁세럼	-6002
▁소량	-6003
▁손해	-6004
▁솔솔	-6005
▁솥밥	-6006
▁수가	-6007
▁슈가	-6008
▁스킨	-6009
▁스탠	-6010
▁시트	-6011
▁식사	-6012
▁식품	-6013
▁실망	-6014
▁아차	-6015
▁아침	-6016
▁앞에	-6017
▁애정	-6018
▁약불	-6019
▁약속	-6020
▁얇게	-6021
▁어떠	-6022
▁어쩌	-6023
▁에그	-6024
▁여성	-6025
▁연기	-6026
▁연유	-6027
▁영접	-6028
▁예쁜	-6029
▁오도	-6030
▁오전	-6031
▁왕복	-6032
▁윙크	-6033
▁유일	-6034
▁유효	-6035
▁육포	-6036
▁은근	-6037
▁이쁜	-6038
▁이어	-6039
▁인공	-6040
▁인터	-6041
▁인한	-6042
▁일이	-6043
▁일정	-6044
▁입안	-6045
▁입에	-6046
▁자두	-6047
▁자몽	-6048
▁자이	-6049
▁잠깐	-6050
▁잡채	-6051
▁저랑	-6052
▁저와	-6053
▁저의	-6054
▁적고	-6055
▁전체	-6056
▁절여	-6057
▁정답	-6058
▁정상	-6059
▁젖병	-6060
▁제격	-6061
▁제약	-6062
▁조율	-6063
▁조이	-6064
▁좋다	-6065
▁주소	-6066
▁중식	-6067
▁중요	-6068
▁즐길	-6069
▁직관	-6070
▁직원	-6071
▁질감	-6072
▁질문	-6073
▁짭짤	-6074
▁쫀덕	-6075
▁쫜득	-6076
▁찐한	-6077
▁찰깨	-6078
▁천재	-6079
▁천호	-6080
▁청량	-6081
▁체다	-6082
▁추석	-6083
▁추카	-6084
▁츄파	-6085
▁치대	-6086
▁캠핑	-6087
▁커밍	-6088
▁케첩	-6089
▁콩볼	-6090
▁크고	-6091
▁크기	-6092
▁텐퍼	-6093
▁토너	-6094
▁토치	-6095
▁통깨	-6096
▁트리	-6097
▁특허	-6098
▁티코	-6099
▁티파	-6100
▁편지	-6101
▁포슬	-6102
▁풋롱	-6103
▁피넛	-6104
▁피쉬	-6105
▁하다	-6106
▁한다	-6107
▁한돈	-6108
▁해장	-6109
▁해준	-6110
▁해태	-6111
▁허쉬	-6112
▁현지	-6113
▁협의	-6114
▁호텔	-6115
▁호호	-6116
▁흔적	-6117
▁흘러	-6118
▁히알	-6119
▁🇯🇵	-6120
▁👉🏻	-6121
ョコレ	-6122
거에요	-6123
겠지만	-6124
고등어	-6125
구맛집	-6126
기전에	-6127
김치찜	-6128
나코타	-6129
닐잉크	-6130
다크랩	-6131
데카포	-6132
도땅콩	-6133
드리고	-6134
떡먹방	-6135
라면을	-6136
립호떡	-6137
마늘빵	-6138
먹다가	-6139
바나나	-6140
바위보	-6141
병캔디	-6142
보니깐	-6143
봅니다	-6144
봉뵈르	-6145
부띠끄	-6146
비지원	-6147
사발면	-6148
사이즈	-6149
삿포로	-6150
상품권	-6151
생새우	-6152
셨는데	-6153
소고기	-6154
소스가	-6155
소스를	-6156
스키피	-6157
스타드	-6158
스토랑	-6159
싶어서	-6160
아줌마	-6161
었더니	-6162
에이슬	-6163
였어요	-6164
영상은	-6165
외계인	-6166
워드리	-6167
원으로	-6168
으로만	-6169
의정석	-6170
이라니	-6171
이스트	-6172
이었던	-6173
이예요	-6174
일동안	-6175
정수육	-6176
▁	-6177
a	-6178
이	-6179
n	-6180
s	-6181
m	-6182
r	-6183
o	-6184
e	-6185
#	-6186
먹	-6187
g	-6188
k	-6189
!	-6190
u	-6191
스	-6192
주	-6193
i	-6194
.	-6195
b	-6196
방	-6197
t	-6198
리	-6199
는	-6200
어	-6201
고	-6202
에	-6203
0	-6204
가	-6205
요	-6206
다	-6207
트	-6208
로	-6209
기	-6210
식	-6211
1	-6212
라	-6213
맛	-6214
시	-6215
c	-6216
크	-6217
아	-6218
지	-6219
한	-6220
?	-6221
d	-6222
서	-6223
치	-6224
수	-6225
2	-6226
h	-6227
도	-6228
하	-6229
니	-6230
만	-6231
간	-6232
,	-6233
디	-6234
일	-6235
신	-6236
초	-6237
추	-6238
l	-6239
마	-6240
집	-6241
저	-6242
바	-6243
f	-6244
들	-6245
면	-6246
3	-6247
상	-6248
의	-6249
사	-6250
정	-6251
제	-6252
천	-6253
나	-6254
게	-6255
🏻	-6256
보	-6257
자	-6258
있	-6259
은	-6260
을	-6261
구	-6262
피	-6263
🫶	-6264
드	-6265
인	-6266
5	-6267
해	-6268
대	-6269
림	-6270
데	-6271
오	-6272
4	-6273
떡	-6274
그	-6275
유	-6276
우	-6277
장	-6278
거	-6279
두	-6280
레	-6281
y	-6282
p	-6283
코	-6284
빵	-6285
과	-6286
음	-6287
)	-6288
으	-6289
(	-6290
미	-6291
콜	-6292
️	-6293
야	-6294
w	-6295
국	-6296
세	-6297
점	-6298
케	-6299
소	-6300
즈	-6301
여	-6302
킨	-6303
까	-6304
원	-6305
무	-6306
버	-6307
비	-6308
모	-6309
젤	-6310
@	-6311
편	-6312
파	-6313
조	-6314
분	-6315
타	-6316
전	-6317
볶	-6318
진	-6319
7	-6320
-	-6321
카	-6322
더	-6323
동	-6324
탕	-6325
부	-6326
달	-6327
6	-6328
를	-6329
연	-6330
후	-6331
ᄏ	-6332
당	-6333
루	-6334
프	-6335
브	-6336
닭	-6337
밥	-6338
릿	-6339
본	-6340
키	-6341
:	-6342
생	-6343
젼	-6344
8	-6345
불	-6346
터	-6347
매	-6348
중	-6349
러	-6350
성	-6351
건	-6352
언	-6353
9	-6354
감	-6355
득	-6356
행	-6357
티	-6358
물	-6359
쿠	-6360
배	-6361
안	-6362
통	-6363
_	-6364
짜	-6365
랑	-6366
S	-6367
메	-6368
·	-6369
말	-6370
톡	-6371
v	-6372
됨	-6373
~	-6374
토	-6375
베	-6376
내	-6377
금	-6378
남	-6379
선	-6380
단	-6381
/	-6382
광	-6383
쫀	-6384
+	-6385
르	-6386
양	-6387
산	-6388
공	-6389
와	-6390
발	-6391
품	-6392
할	-6393
개	-6394
려	-6395
M	-6396
영	-6397
었	-6398
포	-6399
페	-6400
살	-6401
순	-6402
실	-6403
뷰	-6404
플	-6405
던	-6406
합	-6407
박	-6408
계	-6409
ン	-6410
김	-6411
화	-6412
용	-6413
❤	-6414
차	-6415
링	-6416
얼	-6417
울	-6418
딸	-6419
든	-6420
좋	-6421
C	-6422
왕	-6423
ッ	-6424
번	-6425
최	-6426
알	-6427
パ	-6428
새	-6429
린	-6430
j	-6431
심	-6432
래	-6433
너	-6434
운	-6435
했	-6436
モ	-6437
멜	-6438
올	-6439
찌	-6440
글	-6441
강	-6442
때	-6443
명	-6444
삭	-6445
없	-6446
위	-6447
볼	-6448
회	-6449
육	-6450
📍	-6451
A	-6452
같	-6453
료	-6454
둥	-6455
월	-6456
친	-6457
R	-6458
함	-6459
법	-6460
습	-6461
되	-6462
ᅲ	-6463
꿀	-6464
재	-6465
캔	-6466
업	-6467
날	-6468
처	-6469
문	-6470
뉴	-6471
님	-6472
참	-6473
입	-6474
등	-6475
🔥	-6476
돌	-6477
필	-6478
난	-6479
블	-6480
설	-6481
웨	-6482
>	-6483
반	-6484
호	-6485
작	-6486
종	-6487
술	-6488
직	-6489
💵	-6490
꼭	-6491
란	-6492
뿌	-6493
딱	-6494
네	-6495
렛	-6496
테	-6497
넣	-6498
푸	-6499
출	-6500
많	-6501
B	-6502
청	-6503
준	-6504
백	-6505
워	-6506
망	-6507
<	-6508
름	-6509
즘	-6510
판	-6511
결	-6512
근	-6513
길	-6514
핑	-6515
노	-6516
완	-6517
콤	-6518
민	-6519
절	-6520
🏷	-6521
누	-6522
능	-6523
머	-6524
봤	-6525
찜	-6526
념	-6527
엽	-6528
잘	-6529
히	-6530
팝	-6531
것	-6532
왔	-6533
핫	-6534
걸	-6535
채	-6536
ᄃ	-6537
셔	-6538
엔	-6539
역	-6540
예	-6541
늘	-6542
람	-6543
쌀	-6544
클	-6545
덕	-6546
적	-6547
복	-6548
커	-6549
또	-6550
임	-6551
넛	-6552
외	-6553
‍	-6554
급	-6555
온	-6556
큰	-6557
겨	-6558
투	-6559
램	-6560
벤	-6561
삼	-6562
찹	-6563
표	-6564
G	-6565
른	-6566
약	-6567
틱	-6568
✨	-6569
렇	-6570
애	-6571
끼	-6572
엄	-6573
께	-6574
았	-6575
냉	-6576
쉬	-6577
각	-6578
밀	-6579
속	-6580
져	-6581
현	-6582
런	-6583
벽	-6584
질	-6585
콘	-6586
튀	-6587
딩	-6588
꾸	-6589
태	-6590
T	-6591
댓	-6592
슈	-6593
체	-6594
킹	-6595
느	-6596
밤	-6597
갈	-6598
럼	-6599
븐	-6600
싸	-6601
탄	-6602
튜	-6603
U	-6604
‘	-6605
년	-6606
띠	-6607
랜	-6608
례	-6609
창	-6610
흑	-6611
빙	-6612
🍫	-6613
=	-6614
막	-6615
🌟	-6616
•	-6617
받	-6618
싶	-6619
홍	-6620
론	-6621
빠	-6622
석	-6623
z	-6624
츠	-6625
E	-6626
경	-6627
골	-6628
않	-6629
첨	-6630
O	-6631
독	-6632
된	-6633
;	-6634
격	-6635
별	-6636
퍼	-6637
윗	-6638
긴	-6639
증	-6640
컵	-6641
큼	-6642
못	-6643
]	-6644
N	-6645
[	-6646
⏰	-6647
겹	-6648
찐	-6649
퐁	-6650
끝	-6651
특	-6652
%	-6653
K	-6654
곳	-6655
교	-6656
빔	-6657
シ	-6658
따	-6659
접	-6660
택	-6661
&	-6662
량	-6663
릴	-6664
씨	-6665
’	-6666
렌	-6667
찾	-6668
す	-6669
익	-6670
즐	-6671
칼	-6672
몰	-6673
빼	-6674
향	-6675
꼬	-6676
랭	-6677
열	-6678
징	-6679
쫄	-6680
😭	-6681
—	-6682
♥	-6683
담	-6684
샤	-6685
손	-6686
쇼	-6687
잠	-6688
줄	-6689
층	-6690
😍	-6691
F	-6692
🥹	-6693
겠	-6694
립	-6695
몬	-6696
ᄒ	-6697
넘	-6698
맞	-6699
잔	-6700
🍓	-6701
P	-6702
귀	-6703
돼	-6704
럽	-6705
롱	-6706
픈	-6707
극	-6708
돈	-6709
류	-6710
슬	-6711
촉	-6712
콩	-6713
햄	-6714
💕	-6715
D	-6716
족	-6717
죠	-6718
평	-6719
😱	-6720
깨	-6721
력	-6722
목	-6723
🤤	-6724
L	-6725
맘	-6726
빈	-6727
*	-6728
봄	-6729
옥	-6730
왜	-6731
잡	-6732
냥	-6733
봐	-6734
센	-6735
침	-6736
팡	-6737
패	-6738
'	-6739
눈	-6740
봉	-6741
였	-6742
허	-6743
널	-6744
롯	-6745
벅	-6746
송	-6747
팔	-6748
황	-6749
😂	-6750
^	-6751
ー	-6752
관	-6753
덴	-6754
뚝	-6755
락	-6756
쓰	-6757
냐	-6758
찍	-6759
팅	-6760
듯	-6761
색	-6762
쥬	-6763
찬	-6764
큐	-6765
섯	-6766
억	-6767
챌	-6768
궁	-6769
뭐	-6770
숭	-6771
풍	-6772
변	-6773
항	-6774
国	-6775
韓	-6776
깃	-6777
쟈	-6778
픽	-6779
I	-6780
x	-6781
✔	-6782
뜨	-6783
움	-6784
웃	-6785
존	-6786
확	-6787
굽	-6788
귤	-6789
녹	-6790
며	-6791
묵	-6792
짝	-6793
취	-6794
홈	-6795
💚	-6796
の	-6797
견	-6798
앞	-6799
갓	-6800
낌	-6801
샌	-6802
죽	-6803
갔	-6804
듬	-6805
셨	-6806
쌈	-6807
좀	-6808
쳤	-6809
충	-6810
맵	-6811
섞	-6812
츄	-6813
학	-6814
🧀	-6815
H	-6816
즙	-6817
템	-6818
💛	-6819
곱	-6820
궈	-6821
놀	-6822
될	-6823
렸	-6824
롤	-6825
릉	-6826
씩	-6827
착	-6828
펄	-6829
걀	-6830
권	-6831
끓	-6832
닐	-6833
닥	-6834
떤	-6835
럭	-6836
벨	-6837
솥	-6838
슐	-6839
잖	-6840
🍗	-6841
굿	-6842
솔	-6843
써	-6844
탱	-6845
🤭	-6846
🩷	-6847
お	-6848
뽀	-6849
숯	-6850
찰	-6851
텔	-6852
め	-6853
겉	-6854
꽃	-6855
농	-6856
릭	-6857
켓	-6858
팬	-6859
폭	-6860
협	-6861
Q	-6862
맥	-6863
숙	-6864
쭈	-6865
헛	-6866
갑	-6867
록	-6868
션	-6869
짠	-6870
틀	-6871
팁	-6872
희	-6873
💗	-6874
둑	-6875
악	-6876
암	-6877
응	-6878
켜	-6879
팩	-6880
깐	-6881
덮	-6882
땡	-6883
벌	-6884
썸	-6885
칩	-6886
컬	-6887
털	-6888
형	-6889
😎	-6890
"	-6891
X	-6892
Y	-6893
깍	-6894
깔	-6895
떼	-6896
뚜	-6897
뿍	-6898
십	-6899
짱	-6900
쿨	-6901
🎁	-6902
😋	-6903
✅	-6904
マ	-6905
곡	-6906
낭	-6907
닝	-6908
답	-6909
떠	-6910
몽	-6911
믹	-6912
촌	-6913
폰	-6914
혜	-6915
혼	-6916
◾	-6917
⭐	-6918
リ	-6919
덤	-6920
앰	-6921
팥	-6922
효	-6923
😅	-6924
→	-6925
병	-6926
휘	-6927
J	-6928
샹	-6929
압	-6930
옛	-6931
줘	-6932
풀	-6933
꽈	-6934
뎅	-6935
쳐	-6936
휴	-6937
🤍	-6938
V	-6939
q	-6940
イ	-6941
フ	-6942
갬	-6943
납	-6944
녀	-6945
땅	-6946
떻	-6947
륄	-6948
뼈	-6949
쉽	-6950
슨	-6951
옴	-6952
짐	-6953
째	-6954
철	-6955
칠	-6956
ᄀ	-6957
♀	-6958
놓	-6959
똑	-6960
뜩	-6961
쉐	-6962
싼	-6963
줌	-6964
쿄	-6965
헤	-6966
👉	-6967
🤣	-6968
🥰	-6969
Z	-6970
굴	-6971
몸	-6972
슷	-6973
앤	-6974
앱	-6975
킬	-6976
팟	-6977
🍊	-6978
🤎	-6979
ド	-6980
걱	-6981
쵸	-6982
컨	-6983
탁	-6984
폴	-6985
폼	-6986
힘	-6987
📌	-6988
❗	-6989
랙	-6990
믿	-6991
붕	-6992
숨	-6993
퀄	-6994
💦	-6995
🤔	-6996
🤩	-6997
ᅳ	-6998
“	-6999
겁	-7000
군	-7001
껴	-7002
뒤	-7003
쁘	-7004
얇	-7005
얹	-7006
탈	-7007
험	-7008
혹	-7009
획	-7010
🍞	-7011
ᄋ	-7012
랩	-7013
롬	-7014
릇	-7015
멕	-7016
빅	-7017
빌	-7018
빨	-7019
싱	-7020
싹	-7021
쏘	-7022
앙	-7023
짭	-7024
훈	-7025
힌	-7026
ᄅ	-7027
”	-7028
ズ	-7029
꺼	-7030
끔	-7031
둘	-7032
땐	-7033
뜻	-7034
쑥	-7035
줬	-7036
쭉	-7037
텐	-7038
툼	-7039
퓨	-7040
혀	-7041
환	-7042
🍡	-7043
🍦	-7044
🍰	-7045
💖	-7046
❕	-7047
ロ	-7048
검	-7049
딕	-7050
떨	-7051
벳	-7052
엇	-7053
옌	-7054
왁	-7055
잼	-7056
쟁	-7057
탑	-7058
ス	-7059
ラ	-7060
끈	-7061
눅	-7062
덩	-7063
됩	-7064
릅	-7065
몇	-7066
샥	-7067
쏙	-7068
엠	-7069
웠	-7070
율	-7071
캣	-7072
킥	-7073
팽	-7074
활	-7075
🍬	-7076
🎉	-7077
👍	-7078
ト	-7079
ル	-7080
겐	-7081
곰	-7082
껑	-7083
맨	-7084
밍	-7085
뿐	-7086
샷	-7087
솨	-7088
승	-7089
썹	-7090
씹	-7091
윙	-7092
찮	-7093
챙	-7094
캐	-7095
콰	-7096
틴	-7097
🇹	-7098
🩵	-7099
🫢	-7100
➡	-7101
チ	-7102
겟	-7103
곁	-7104
껍	-7105
낸	-7106
됐	-7107
맹	-7108
북	-7109
솜	-7110
씬	-7111
옆	-7112
욱	-7113
잇	-7114
쟉	-7115
젠	-7116
쪽	-7117
총	-7118
핵	-7119
훨	-7120
🇷	-7121
🎄	-7122
✋	-7123
タ	-7124
갱	-7125
났	-7126
넉	-7127
딥	-7128
뜯	-7129
멀	-7130
썰	-7131
얘	-7132
욕	-7133
잉	-7134
좌	-7135
첩	-7136
춰	-7137
퉁	-7138
팸	-7139
핏	-7140
혈	-7141
💙	-7142
🦐	-7143
🧡	-7144
갖	-7145
갤	-7146
곤	-7147
괜	-7148
꿔	-7149
끄	-7150
냄	-7151
냈	-7152
논	-7153
닌	-7154
룩	-7155
룸	-7156
먼	-7157
밖	-7158
뷔	-7159
뻔	-7160
샐	-7161
슴	-7162
액	-7163
염	-7164
졸	-7165
쯤	-7166
칸	-7167
톤	-7168
흥	-7169
🍇	-7170
🍉	-7171
🍕	-7172
🍜	-7173
🍩	-7174
🥭	-7175
🫠	-7176
̣	-7177
ฅ	-7178
ི	-7179
ྀ	-7180
❄	-7181
コ	-7182
ヌ	-7183
ュ	-7184
レ	-7185
값	-7186
괴	-7187
껏	-7188
낙	-7189
낫	-7190
높	-7191
덜	-7192
듀	-7193
범	-7194
벼	-7195
쁜	-7196
셰	-7197
죄	-7198
쯔	-7199
척	-7200
첫	-7201
팜	-7202
훠	-7203
흡	-7204
🌶	-7205
🍎	-7206
🍔	-7207
🎂	-7208
🐟	-7209
🧱	-7210
✌	-7211
ク	-7212
メ	-7213
깜	-7214
땀	-7215
롭	-7216
멸	-7217
뭔	-7218
뭘	-7219
붙	-7220
삶	-7221
샘	-7222
샵	-7223
셀	-7224
숲	-7225
엿	-7226
욬	-7227
읍	-7228
쪼	-7229
축	-7230
칭	-7231
캇	-7232
켰	-7233
흔	-7234
힐	-7235
🌈	-7236
🍋	-7237
🍒	-7238
🍪	-7239
🍭	-7240
🙏	-7241
🥒	-7242
🥲	-7243
🦑	-7244
|	-7245
⠀	-7246
⬇	-7247
キ	-7248
굳	-7249
긋	-7250
깊	-7251
닉	-7252
뎌	-7253
랄	-7254
렴	-7255
룰	-7256
멘	-7257
믄	-7258
및	-7259
벚	-7260
붓	-7261
빛	-7262
싫	-7263
쌓	-7264
쓴	-7265
쩌	-7266
찔	-7267
춧	-7268
콕	-7269
흘	-7270
🇨	-7271
🇳	-7272
🇵	-7273
🍍	-7274
🍚	-7275
🍟	-7276
💎	-7277
💥	-7278
💪	-7279
😌	-7280
🙋	-7281
🙌	-7282
🚨	-7283
🧈	-7284
W	-7285
❌	-7286
ア	-7287
デ	-7288
겼	-7289
꿈	-7290
끌	-7291
냠	-7292
넷	-7293
눌	-7294
랍	-7295
랐	-7296
뱀	-7297
뽑	-7298
쉘	-7299
쌉	-7300
윤	-7301
젓	-7302
졌	-7303
즌	-7304
짤	-7305
춘	-7306
캠	-7307
컴	-7308
퀸	-7309
튼	-7310
흐	-7311
🇯	-7312
🇰	-7313
🍨	-7314
👇	-7315
😊	-7316
🥬	-7317
ᄉ	-7318
▶	-7319
い	-7320
겔	-7321
곶	-7322
낄	-7323
낮	-7324
녁	-7325
눠	-7326
닷	-7327
뚱	-7328
럴	-7329
렀	-7330
렁	-7331
멍	-7332
묻	-7333
뮤	-7334
뻐	-7335
뿜	-7336
샀	-7337
쓸	-7338
좔	-7339
줍	-7340
즉	-7341
짬	-7342
쫜	-7343
첼	-7344
탠	-7345
턴	-7346
텀	-7347
틈	-7348
홀	-7349
흰	-7350
🍈	-7351
🍑	-7352
🍣	-7353
🍳	-7354
🐷	-7355
💡	-7356
★	-7357
り	-7358
カ	-7359
ツ	-7360
객	-7361
낋	-7362
낵	-7363
됌	-7364
딜	-7365
똥	-7366
벗	-7367
빽	-7368
뺨	-7369
뻥	-7370
뽕	-7371
썬	-7372
앉	-7373
엉	-7374
젖	-7375
젬	-7376
챗	-7377
퀴	-7378
톨	-7379
펀	-7380
펑	-7381
🍝	-7382
🍤	-7383
💜	-7384
📣	-7385
🥐	-7386
🥛	-7387
🥝	-7388
🥟	-7389
🦀	-7390
ع	-7391
੭	-7392
ᄌ	-7393
ᅮ	-7394
ま	-7395
ザ	-7396
バ	-7397
ブ	-7398
プ	-7399
ポ	-7400
ョ	-7401
食	-7402
깡	-7403
꽉	-7404
꽤	-7405
뀌	-7406
놔	-7407
놨	-7408
뒷	-7409
듣	-7410
딘	-7411
렵	-7412
륵	-7413
맙	-7414
밌	-7415
밑	-7416
밭	-7417
봅	-7418
뵈	-7419
빗	-7420
빻	-7421
뺑	-7422
숏	-7423
옷	-7424
잎	-7425
쥐	-7426
쩍	-7427
쮸	-7428
책	-7429
측	-7430
컷	-7431
콸	-7432
푼	-7433
헌	-7434
헬	-7435
🇪	-7436
🇭	-7437
🍌	-7438
🎀	-7439
📢	-7440
🖤	-7441
😘	-7442
😙	-7443
🤦	-7444
🤫	-7445
🥯	-7446
🥶	-7447
🧊	-7448
̶	-7449
❓	-7450
グ	-7451
ケ	-7452
ナ	-7453
ャ	-7454
人	-7455
깻	-7456
놈	-7457
늦	-7458
닮	-7459
댑	-7460
댕	-7461
뎈	-7462
둠	-7463
뛰	-7464
렐	-7465
령	-7466
룻	-7467
룽	-7468
륙	-7469
률	-7470
맑	-7471
멋	-7472
묘	-7473
믈	-7474
삿	-7475
썼	-7476
쑤	-7477
쓱	-7478
옵	-7479
왓	-7480
읽	-7481
잊	-7482
줼	-7483
쥔	-7484
쩔	-7485
촤	-7486
춥	-7487
캉	-7488
캡	-7489
탭	-7490
풋	-7491
핍	-7492
헐	-7493
횟	-7494
🌸	-7495
🌿	-7496
🍀	-7497
🍯	-7498
🎅	-7499
💝	-7500
💬	-7501
🔎	-7502
😆	-7503
🙂	-7504
🧐	-7505
🫐	-7506
̴	-7507
̷	-7508
و	-7509
ຶ	-7510
ᅢ	-7511
⁠	-7512
↕	-7513
☺	-7514
✊	-7515
う	-7516
き	-7517
こ	-7518
ご	-7519
た	-7520
と	-7521
ゲ	-7522
ゴ	-7523
ジ	-7524
ピ	-7525
司	-7526
寿	-7527
麺	-7528
ꈨ	-7529
곧	-7530
곽	-7531
굉	-7532
꼈	-7533
꽁	-7534
넓	-7535
델	-7536
둔	-7537
둣	-7538
뒀	-7539
듭	-7540
띵	-7541
랫	-7542
련	-7543
묶	-7544
뭉	-7545
므	-7546
뱉	-7547
삐	-7548
섬	-7549
섭	-7550
셉	-7551
셋	-7552
셜	-7553
쉿	-7554
쌍	-7555
쏟	-7556
쏨	-7557
씁	-7558
씰	-7559
얀	-7560
엣	-7561
찢	-7562
찼	-7563
촬	-7564
춤	-7565
쿡	-7566
쿵	-7567
킷	-7568
텅	-7569
퇴	-7570
툇	-7571
팀	-7572
팍	-7573
펙	-7574
펩	-7575
핀	-7576
헝	-7577
🇦	-7578
🇩	-7579
🇺	-7580
🇼	-7581
🍏	-7582
🍘	-7583
🍧	-7584
🏠	-7585
🐻	-7586
👀	-7587
👏	-7588
👩	-7589
💓	-7590
📆	-7591
🔹	-7592
😳	-7593
🙀	-7594
🚀	-7595
🥇	-7596
🥧	-7597
🥩	-7598
🧋	-7599
🧪	-7600
🫣	-7601
˕	-7602
̊	-7603
̮	-7604
ᄂ	-7605
ᄆ	-7606
ᄎ	-7607
ᅦ	-7608
※	-7609
⊹	-7610
▫	-7611
☕	-7612
♡	-7613
⭕	-7614
し	-7615
ち	-7616
な	-7617
に	-7618
は	-7619
べ	-7620
ん	-7621
ィ	-7622
エ	-7623
卷	-7624
夜	-7625
巾	-7626
毛	-7627
焼	-7628
餅	-7629
걍	-7630
곸	-7631
귄	-7632
깎	-7633
껀	-7634
꽝	-7635
낼	-7636
냅	-7637
녕	-7638
뇨	-7639
눔	-7640
닼	-7641
닿	-7642
댄	-7643
돋	-7644
듦	-7645
딴	-7646
땋	-7647
뜬	-7648
룹	-7649
밝	-7650
뿔	-7651
쁠	-7652
쁨	-7653
샨	-7654
셩	-7655
숩	-7656
숴	-7657
쌤	-7658
썩	-7659
쎄	-7660
앗	-7661
얻	-7662
옐	-7663
욜	-7664
웬	-7665
웰	-7666
윅	-7667
융	-7668
젊	-7669
짓	-7670
쪄	-7671
쫙	-7672
촥	-7673
칫	-7674
켈	-7675
콧	-7676
쾌	-7677
턱	-7678
튤	-7679
퍽	-7680
펭	-7681
펴	-7682
푹	-7683
픔	-7684
햇	-7685
헹	-7686
혔	-7687
훌	-7688
흙	-7689
🇮	-7690
🇸	-7691
🌯	-7692
🌰	-7693
🌽	-7694
🍅	-7695
🍙	-7696
🍠	-7697
🍮	-7698
💔	-7699
😀	-7700
😉	-7701
😓	-7702
🤓	-7703
🤪	-7704
🥔	-7705
🥘	-7706
🥣	-7707
🥥	-7708
🪨	-7709
🫡	-7710
ɞ	-7711
˂	-7712
˃	-7713
̇	-7714
̫	-7715
̵	-7716
ღ	-7717
ᄇ	-7718
ᄐ	-7719
ᅥ	-7720
ᕱ	-7721
ᴗ	-7722
‧	-7723
₩	-7724
☁	-7725
☑	-7726
♨	-7727
⚡	-7728
⚽	-7729
✓	-7730
❣	-7731
あ	-7732
が	-7733
ぎ	-7734
く	-7735
ざ	-7736
て	-7737
も	-7738
を	-7739
ェ	-7740
オ	-7741
セ	-7742
ゼ	-7743
テ	-7744
ビ	-7745
ペ	-7746
ミ	-7747
中	-7748
北	-7749
塩	-7750
油	-7751
海	-7752
激	-7753
炒	-7754
無	-7755
肉	-7756
辛	-7757
道	-7758
醤	-7759
鶏	-7760
갘	-7761
갠	-7762
겪	-7763
괌	-7764
균	-7765
긍	-7766
꺄	-7767
꽂	-7768
꿍	-7769
꿰	-7770
끊	-7771
넝	-7772
녔	-7773
뇌	-7774
눙	-7775
뉘	-7776
늉	-7777
늑	-7778
늙	-7779
닙	-7780
닠	-7781
댜	-7782
댱	-7783
덧	-7784
돠	-7785
됔	-7786
땠	-7787
떴	-7788
떵	-7789
뗑	-7790
띰	-7791
랏	-7792
랬	-7793
렉	-7794
륨	-7795
뭇	-7796
뭍	-7797
밸	-7798
뱃	-7799
붉	-7800
붐	-7801
빡	-7802
빳	-7803
뽁	-7804
뽐	-7805
삽	-7806
섹	-7807
숫	-7808
쉴	-7809
슝	-7810
싯	-7811
쏠	-7812
쑨	-7813
쓩	-7814
씻	-7815
얗	-7816
옇	-7817
왠	-7818
욧	-7819
웅	-7820
윽	-7821
잌	-7822
잤	-7823
젯	-7824
줠	-7825
즤	-7826
쩜	-7827
쩝	-7828
챔	-7829
챠	-7830
촵	-7831
칵	-7832
캘	-7833
쿰	-7834
탉	-7835
탐	-7836
텁	-7837
텃	-7838
혓	-7839
홋	-7840
훗	-7841
휩	-7842
🇫	-7843
🇱	-7844
🇻	-7845
🇿	-7846
🌋	-7847
🌏	-7848
🌙	-7849
🌱	-7850
🌴	-7851
🌹	-7852
🍃	-7853
🍄	-7854
🍱	-7855
🍴	-7856
🍹	-7857
🍿	-7858
🏃	-7859
🏆	-7860
🏖	-7861
🐍	-7862
🐔	-7863
🐰	-7864
👋	-7865
👌	-7866
👼	-7867
💁	-7868
💃	-7869
💋	-7870
💌	-7871
💞	-7872
💟	-7873
💧	-7874
💫	-7875
💯	-7876
💰	-7877
📅	-7878
📸	-7879
🔊	-7880
🔍	-7881
🕺	-7882
🗓	-7883
😝	-7884
😢	-7885
😲	-7886
🙇	-7887
🠖	-7888
🥄	-7889
🥗	-7890
🥚	-7891
🥜	-7892
🥤	-7893
🥵	-7894
🦞	-7895
🧁	-7896
🧧	-7897
🧸	-7898
🪖	-7899
🫧	-7900
`	-7901
́	-7902
͂	-7903
؎	-7904
ا	-7905
ب	-7906
ة	-7907
ت	-7908
د	-7909
ش	-7910
ك	-7911
ل	-7912
ي	-7913
ദ	-7914
ി	-7915
๑	-7916
ᅩ	-7917
ᅵ	-7918
᷄	-7919
᷅	-7920
–	-7921
↓	-7922
↔	-7923
⏱	-7924
⑅	-7925
■	-7926
◡	-7927
☀	-7928
⚾	-7929
⛲	-7930
✉	-7931
⤴	-7932
⬅	-7933
〈	-7934
『	-7935
』	-7936
か	-7937
ぐ	-7938
ず	-7939
っ	-7940
で	-7941
ね	-7942
び	-7943
ゃ	-7944
ら	-7945
る	-7946
れ	-7947
わ	-7948
ギ	-7949
ハ	-7950
ム	-7951
一	-7952
京	-7953
佐	-7954
何	-7955
南	-7956
好	-7957
幌	-7958
延	-7959
抹	-7960
札	-7961
東	-7962
次	-7963
洞	-7964
緒	-7965
茶	-7966
藤	-7967
見	-7968
赤	-7969
꒰	-7970
꒱	-7971
걷	-7972
겈	-7973
겡	-7974
겸	-7975
규	-7976
긁	-7977
깝	-7978
깬	-7979
꺅	-7980
껄	-7981
꼰	-7982
꼼	-7983
꾼	-7984
뀐	-7985
끗	-7986
낀	-7987
낉	-7988
낚	-7989
낰	-7990
낱	-7991
넒	-7992
넹	-7993
눗	-7994
눟	-7995
뉸	-7996
